<unk>	0
<s>	0
</s>	0
,	-3.30765
▁di	-3.60578
.	-3.61584
▁e	-3.98247
'	-4.1556
▁la	-4.20356
▁il	-4.21661
▁	-4.41799
▁a	-4.42193
▁in	-4.45278
▁del	-4.64417
▁che	-4.82288
▁un	-4.83441
e	-4.86041
▁nel	-4.8836
o	-4.90482
▁"	-4.94594
▁per	-4.95465
a	-4.99822
▁della	-5.00729
▁l	-5.01028
▁è	-5.01353
▁con	-5.02562
i	-5.04929
re	-5.05091
▁i	-5.10539
▁si	-5.20623
▁da	-5.23415
▁una	-5.30532
to	-5.32678
▁le	-5.34692
▁al	-5.38626
"	-5.39571
▁dell	-5.43761
s	-5.48608
ta	-5.48746
▁##	-5.51637
▁(	-5.54263
no	-5.57563
la	-5.63254
le	-5.7009
ti	-5.77333
▁dei	-5.84015
▁alla	-5.88902
:	-5.93722
▁non	-5.9649
▁ma	-5.98532
-	-6.0268
▁come	-6.03893
te	-6.04234
▁fu	-6.07631
▁dal	-6.10068
)	-6.10115
▁ha	-6.12553
▁più	-6.17794
va	-6.22307
▁anche	-6.24767
ndo	-6.25442
▁gli	-6.26407
▁tra	-6.26714
▁ad	-6.28514
;	-6.28515
▁lo	-6.3047
",	-6.30722
▁sono	-6.32631
▁o	-6.34337
ro	-6.34355
n	-6.34614
▁all	-6.35153
li	-6.3588
▁nell	-6.36889
▁suo	-6.40344
ri	-6.40649
na	-6.42051
l	-6.44022
c	-6.45588
▁sua	-6.45614
▁d	-6.46748
▁due	-6.48349
ne	-6.49258
▁dopo	-6.49581
ni	-6.54693
▁ed	-6.55081
▁de	-6.55559
si	-6.56756
r	-6.57657
▁dalla	-6.597
t	-6.63266
▁cui	-6.63806
ca	-6.64245
ò	-6.64698
▁prima	-6.65393
▁era	-6.67805
▁su	-6.70417
y	-6.72876
▁anni	-6.73208
▁ri	-6.75016
▁parte	-6.75605
▁se	-6.76216
▁s	-6.76953
d	-6.79975
lo	-6.80421
),	-6.80938
nte	-6.81172
▁stato	-6.81773
co	-6.82023
ma	-6.83033
u	-6.8417
di	-6.84424
".	-6.85937
zione	-6.86644
mente	-6.87042
in	-6.88161
ra	-6.88324
m	-6.89695
▁re	-6.92524
).	-6.95689
sa	-6.96904
se	-7.01271
mi	-7.01836
▁essere	-7.02378
gli	-7.02391
▁questo	-7.03192
vi	-7.03537
ci	-7.03865
do	-7.04135
▁viene	-7.05758
de	-7.06696
▁ai	-7.08579
▁loro	-7.09409
▁vi	-7.10312
nti	-7.11383
ce	-7.13861
▁san	-7.16021
▁sul	-7.16229
sta	-7.16579
▁mentre	-7.17076
▁degl	-7.17711
rsi	-7.18547
ga	-7.18752
▁alle	-7.18957
da	-7.19155
so	-7.19169
f	-7.20873
▁dove	-7.20907
ve	-7.21275
rono	-7.22488
g	-7.22564
p	-7.22612
▁fa	-7.23153
me	-7.24169
▁quando	-7.24601
▁venne	-7.25097
▁nei	-7.25694
zioni	-7.26592
▁dall	-7.27259
▁serie	-7.27851
mo	-7.27913
sti	-7.28551
▁primo	-7.28911
▁tre	-7.30909
▁secondo	-7.32382
▁contro	-7.33896
▁durante	-7.33958
che	-7.34284
▁solo	-7.35222
▁poi	-7.36215
▁uno	-7.36328
▁18	-7.36757
▁città	-7.38918
▁quale	-7.39456
▁questa	-7.41934
tta	-7.41958
▁nelle	-7.42193
▁c	-7.42851
▁sulla	-7.44555
k	-7.46039
▁così	-7.46811
mento	-7.48275
ria	-7.49308
z	-7.49567
▁stagione	-7.4971
▁altri	-7.51234
▁suoi	-7.51508
▁fino	-7.5174
▁nome	-7.51787
tto	-7.52132
b	-7.52529
▁co	-7.53027
▁stesso	-7.53058
▁li	-7.532
▁sia	-7.54367
▁molto	-7.54463
bi	-7.55128
▁ci	-7.5513
▁storia	-7.55519
▁comune	-7.55854
tti	-7.56621
▁-	-7.56972
gi	-7.57059
▁ne	-7.57571
▁furono	-7.6005
▁dai	-7.60215
v	-7.60902
▁fine	-7.61604
▁stata	-7.61833
▁pre	-7.62207
▁aveva	-7.62425
x	-7.62936
pi	-7.62938
go	-7.63188
er	-7.63577
▁grande	-7.64281
vo	-7.65301
▁gruppo	-7.6576
▁tutti	-7.6586
ato	-7.66737
us	-7.67564
sse	-7.67593
▁sotto	-7.67814
▁1	-7.68308
▁fra	-7.68581
▁seconda	-7.69033
▁seguito	-7.69272
ge	-7.69385
▁hanno	-7.69889
▁aver	-7.70051
h	-7.70408
pe	-7.70766
▁casa	-7.71151
tte	-7.71445
▁volta	-7.72209
vano	-7.72271
▁vita	-7.72446
al	-7.72683
▁alcuni	-7.7327
fi	-7.74088
▁2	-7.74808
▁stati	-7.75035
ba	-7.76036
▁mi	-7.76091
tu	-7.76292
/	-7.76399
▁film	-7.76518
tra	-7.77159
il	-7.77165
▁ca	-7.7816
ur	-7.78316
po	-7.78609
▁pro	-7.78868
▁tempo	-7.79371
▁lui	-7.79917
tà	-7.80099
▁ancora	-7.80137
▁quella	-7.80647
▁ra	-7.80912
▁nuovo	-7.8098
▁trova	-7.81243
▁quello	-7.81584
▁("	-7.81627
▁formula	-7.82163
▁chiesa	-7.82531
▁secolo	-7.82717
▁quindi	-7.82952
▁4	-7.83186
▁erano	-7.83189
pa	-7.84835
▁squadra	-7.85044
▁sempre	-7.85209
▁3	-7.85275
▁mo	-7.85628
are	-7.85738
▁posto	-7.85879
▁sa	-7.86033
w	-7.86289
▁può	-7.86908
nza	-7.87076
▁negli	-7.87157
▁già	-7.87206
▁causa	-7.87635
▁sue	-7.8884
▁guerra	-7.89015
▁però	-7.89218
bo	-7.89305
man	-7.89878
one	-7.9015
zza	-7.90854
▁quali	-7.90961
ssi	-7.91008
▁xena	-7.91054
en	-7.91415
▁fatto	-7.9149
ng	-7.91663
▁col	-7.92197
st	-7.92254
ff	-7.92443
rio	-7.92663
▁the	-7.92693
▁17	-7.92863
▁periodo	-7.92902
▁circa	-7.92923
tori	-7.93038
▁proprio	-7.93139
▁ba	-7.93166
anno	-7.93178
fa	-7.93292
▁sta	-7.9385
▁questi	-7.94219
ch	-7.94718
▁pa	-7.95089
tore	-7.951
▁5	-7.95314
▁16	-7.95424
ck	-7.95588
chi	-7.95742
▁15	-7.96004
▁oltre	-7.96015
du	-7.96059
rà	-7.96146
▁inoltre	-7.97212
▁nazionale	-7.97216
▁senza	-7.97526
▁so	-7.97788
▁altre	-7.97923
▁dalle	-7.9805
lla	-7.98664
▁campionato	-7.9885
▁tutto	-7.98898
▁sull	-7.98968
▁finale	-7.99061
▁invece	-7.99325
▁ta	-7.9941
ata	-7.99558
▁verso	-7.99922
▁quattro	-8.00031
▁ogni	-8.01194
▁m	-8.01271
▁famiglia	-8.01465
ggi	-8.02153
ter	-8.02416
▁va	-8.02859
▁infatti	-8.03483
per	-8.03862
th	-8.03977
▁bo	-8.04168
▁anno	-8.04552
▁presso	-8.05009
▁mondo	-8.05343
oni	-8.05353
lu	-8.0586
▁morte	-8.06082
▁forma	-8.06202
▁12	-8.06257
▁insieme	-8.06271
menti	-8.06573
▁via	-8.06666
ssa	-8.06852
▁p	-8.07072
8	-8.07518
an	-8.08444
ono	-8.08521
ver	-8.09036
▁quanto	-8.0907
ar	-8.09834
▁b	-8.10443
nd	-8.10536
")	-8.11463
▁te	-8.11629
▁roma	-8.11717
▁nuova	-8.11758
▁modo	-8.12153
▁trama	-8.13039
be	-8.13041
▁10	-8.13399
▁car	-8.13461
▁pi	-8.13612
or	-8.14749
▁far	-8.14873
▁6	-8.14951
▁of	-8.15933
▁titolo	-8.15994
▁fi	-8.16496
con	-8.16505
un	-8.16623
ali	-8.16772
on	-8.1752
▁ben	-8.17741
▁agli	-8.17915
▁tuttavia	-8.18488
▁settembre	-8.18708
▁ro	-8.18847
▁inizia	-8.18881
um	-8.19751
▁alcune	-8.19754
▁tale	-8.20009
ste	-8.20051
▁grazie	-8.20334
▁centro	-8.20336
▁po	-8.20622
▁14	-8.21301
ì	-8.21589
▁13	-8.21799
▁figlio	-8.21929
▁quest	-8.22665
▁porta	-8.23017
▁carriera	-8.23427
ndosi	-8.23613
▁padre	-8.2366
▁na	-8.23834
▁perché	-8.23848
3	-8.24036
▁nord	-8.2423
▁me	-8.24453
▁italia	-8.24702
▁club	-8.24876
▁maggio	-8.24921
▁coppa	-8.25141
▁bi	-8.2564
nt	-8.25747
fe	-8.25998
1	-8.26388
▁«	-8.26445
é	-8.26487
ia	-8.26513
▁particolare	-8.26642
▁ve	-8.26692
▁società	-8.27137
▁pe	-8.27329
ing	-8.27531
ale	-8.28166
2	-8.28193
▁sud	-8.28715
▁successo	-8.29378
rlo	-8.29649
▁lei	-8.29651
▁tutte	-8.3009
fo	-8.30171
▁base	-8.3028
opera	-8.30402
sce	-8.30561
è	-8.31351
▁mai	-8.31367
j	-8.31598
▁opera	-8.31759
▁allo	-8.31888
▁sarebbe	-8.32051
ry	-8.32282
▁numero	-8.32395
▁luglio	-8.32498
▁(19	-8.32585
▁avrebbe	-8.326
sci	-8.32606
7	-8.32636
▁giugno	-8.32901
azione	-8.32976
▁cor	-8.33149
lle	-8.33164
son	-8.33164
▁presenta	-8.33245
▁stessa	-8.33307
era	-8.33955
lli	-8.34099
▁7	-8.34169
▁bar	-8.34405
stra	-8.34408
▁poco	-8.34491
▁chi	-8.34513
ru	-8.34562
ultimo	-8.34629
▁v	-8.34906
▁corso	-8.35257
▁primi	-8.35276
▁caso	-8.35448
▁molti	-8.35744
zio	-8.35807
▁gran	-8.35896
▁gennaio	-8.36127
▁ce	-8.36245
▁linea	-8.36374
’	-8.36676
es	-8.369
▁f	-8.36941
ns	-8.3705
ano	-8.37283
sco	-8.37674
ke	-8.37697
▁ar	-8.37913
▁sistema	-8.37973
sp	-8.3821
bile	-8.38256
interno	-8.38808
llo	-8.39387
ati	-8.39731
▁governo	-8.39752
▁generale	-8.39777
mp	-8.40532
▁lavoro	-8.40612
su	-8.4081
▁vengono	-8.40817
▁ga	-8.41028
▁vittoria	-8.41037
ll	-8.41138
▁g	-8.41166
▁do	-8.41586
tt	-8.41632
▁sca	-8.4179
▁to	-8.41946
ka	-8.42248
el	-8.42467
▁and	-8.4261
▁lungo	-8.43073
ha	-8.43177
▁album	-8.43233
▁terra	-8.43264
ss	-8.43283
▁decide	-8.43365
▁giovanni	-8.43519
ld	-8.43601
▁versione	-8.43683
nda	-8.43825
▁maggiore	-8.44022
gna	-8.44104
▁nonostante	-8.44134
▁k	-8.44412
▁new	-8.44561
za	-8.44589
ad	-8.44975
6	-8.45485
▁esempio	-8.45623
▁punto	-8.45819
mb	-8.46136
rie	-8.46227
▁oggi	-8.46232
sso	-8.46277
bili	-8.46284
cu	-8.46724
▁maria	-8.4683
cchi	-8.47039
▁diversi	-8.47521
▁momento	-8.47526
-19	-8.47565
▁t	-8.48015
▁squadre	-8.48343
▁vennero	-8.4842
eri	-8.4861
sh	-8.48987
▁olimpia	-8.49081
▁go	-8.49254
▁tratta	-8.49327
▁band	-8.4937
ico	-8.49605
▁rispetto	-8.49751
▁qui	-8.49772
▁ciò	-8.50091
smo	-8.50275
▁mondiale	-8.50532
the	-8.5058
▁ebbe	-8.5073
▁spesso	-8.51021
▁termine	-8.51645
▁media	-8.51677
▁studio	-8.51724
is	-8.51773
▁quasi	-8.52155
tico	-8.52391
▁dicembre	-8.52447
▁opere	-8.52453
▁ho	-8.52768
▁com	-8.53158
▁queste	-8.53196
▁biografia	-8.53279
nia	-8.53308
▁corpo	-8.53327
cca	-8.53331
▁bu	-8.53403
▁zona	-8.5364
pro	-8.53708
▁capo	-8.53844
▁ii	-8.5397
▁calcio	-8.54206
▁francesco	-8.54274
▁italiana	-8.54293
▁giorno	-8.54565
cco	-8.5469
ire	-8.54816
▁sede	-8.54845
▁u	-8.55076
▁santa	-8.5525
▁mar	-8.55344
▁soprattutto	-8.55611
ate	-8.55845
▁9	-8.56067
pp	-8.56239
br	-8.56533
▁inter	-8.56539
altra	-8.56728
vol	-8.56861
▁grandi	-8.57349
▁produzione	-8.57403
ul	-8.57532
▁or	-8.57671
tica	-8.57708
album	-8.57725
tri	-8.57771
ster	-8.58062
▁territorio	-8.58122
io	-8.58321
▁marzo	-8.58425
&	-8.58762
▁campo	-8.58866
▁divenne	-8.58944
▁regno	-8.59043
fer	-8.5911
5	-8.59211
ggio	-8.59214
▁volte	-8.59234
▁disco	-8.59391
que	-8.59508
▁novembre	-8.59976
▁val	-8.6054
▁successivamente	-8.60545
▁classifica	-8.60722
▁uniti	-8.60769
attraverso	-8.61024
▁piano	-8.61182
▁possono	-8.61206
ven	-8.61242
mer	-8.61573
ja	-8.61653
▁pubblicato	-8.61712
▁ka	-8.61808
nce	-8.6194
▁2006	-8.62093
gno	-8.62629
▁diverse	-8.62634
▁papa	-8.62642
▁fe	-8.62655
▁italiano	-8.62818
▁presidente	-8.6285
▁servizio	-8.62863
ment	-8.62887
nze	-8.62942
▁tri	-8.62958
ultima	-8.63102
▁stile	-8.63538
▁ruolo	-8.64065
▁ottobre	-8.64344
▁legge	-8.64724
bu	-8.64766
▁giovane	-8.64835
▁altro	-8.65048
▁febbraio	-8.6533
▁regione	-8.6533
▁be	-8.65389
▁scuola	-8.65881
land	-8.65891
▁musica	-8.6612
▁specie	-8.66251
italia	-8.66838
▁progetto	-8.66854
via	-8.67031
▁2007	-8.67476
lt	-8.67509
ente	-8.67638
qui	-8.6768
arte	-8.67972
▁luogo	-8.68118
gia	-8.68139
▁sp	-8.68163
▁allora	-8.68432
▁sui	-8.68497
tivo	-8.68898
▁partire	-8.68998
▁realtà	-8.69065
▁figlia	-8.69193
%	-8.6931
zia	-8.69553
rla	-8.69718
▁punti	-8.69946
▁fece	-8.70127
▁cinque	-8.70323
▁km	-8.70347
nu	-8.70459
▁presenza	-8.70627
▁comunque	-8.70792
▁propria	-8.70926
▁subito	-8.7099
▁fo	-8.71084
▁comp	-8.71086
sia	-8.71249
▁meno	-8.71371
▁torneo	-8.71376
gio	-8.71411
tura	-8.71434
▁fosse	-8.71638
▁lega	-8.71702
▁rivela	-8.71738
▁imp	-8.71745
ita	-8.71758
▁fare	-8.71839
hi	-8.71843
▁vari	-8.71985
▁aprile	-8.72017
▁abitanti	-8.7219
at	-8.72465
ner	-8.72489
▁state	-8.72626
▁quel	-8.72856
▁ritorno	-8.73143
▁monte	-8.73281
▁livello	-8.73747
▁agosto	-8.73789
»	-8.73838
▁20	-8.73838
ghe	-8.73953
inizio	-8.7407
▁francese	-8.74626
▁an	-8.74724
▁madre	-8.74754
▁classe	-8.74871
▁sco	-8.75179
ica	-8.7524
▁partite	-8.75547
▁ricerca	-8.75551
nto	-8.75728
▁w	-8.75956
▁league	-8.76163
ità	-8.76347
▁riesce	-8.76368
▁quelle	-8.76434
sca	-8.76639
▁presente	-8.76861
nde	-8.76897
ture	-8.7705
▁prime	-8.77149
▁possibile	-8.7719
4	-8.77257
▁posizione	-8.77397
tro	-8.7742
▁tu	-8.7757
ranno	-8.77705
▁giorni	-8.77809
▁torna	-8.77863
▁ora	-8.77917
isola	-8.78278
▁metà	-8.78321
he	-8.78355
wa	-8.78404
▁avere	-8.78521
ud	-8.78673
▁maggior	-8.78833
▁totale	-8.78856
▁n	-8.78947
ki	-8.78997
▁ti	-8.79039
▁battaglia	-8.79065
▁can	-8.79138
▁no	-8.79263
▁rappresenta	-8.79272
▁uomini	-8.79274
▁lavori	-8.79282
▁2008	-8.79283
▁x	-8.79315
▁stra	-8.79344
▁nota	-8.79375
zzo	-8.79897
▁sembra	-8.79908
▁centrale	-8.7998
mor	-8.80025
uomo	-8.80063
ici	-8.80069
▁persone	-8.80174
ndi	-8.80254
▁pubblico	-8.80546
▁precedente	-8.80663
▁struttura	-8.80704
▁presenti	-8.80826
▁donna	-8.81099
cia	-8.81342
▁poiché	-8.81434
▁for	-8.81488
▁tutta	-8.81516
▁fin	-8.81586
epoca	-8.81709
▁milioni	-8.81835
▁mesi	-8.81905
ccio	-8.81913
▁francia	-8.82058
▁vista	-8.8208
▁genere	-8.821
dio	-8.82117
tion	-8.82428
▁canzone	-8.82704
▁willy	-8.82722
▁passa	-8.82815
ex	-8.82981
▁attività	-8.83253
▁studi	-8.83363
▁ru	-8.83528
▁r	-8.83565
▁colonna	-8.83581
▁sal	-8.83729
▁para	-8.83759
▁reti	-8.84008
▁cerca	-8.8402
▁terzo	-8.84021
▁8	-8.84225
com	-8.84663
▁“	-8.84786
ard	-8.84849
ho	-8.84925
▁comuni	-8.84932
▁tipo	-8.84961
lia	-8.85081
▁sei	-8.85141
▁fuori	-8.85771
ber	-8.85807
▁moglie	-8.85807
ty	-8.86007
▁infine	-8.86036
gen	-8.86083
amp	-8.86145
▁cu	-8.8628
▁sola	-8.86664
▁conquista	-8.86709
▁2005	-8.86719
ppo	-8.86827
▁luce	-8.86857
"),	-8.87122
▁repubblica	-8.87164
▁pur	-8.87213
zi	-8.8736
▁singolo	-8.87392
▁testa	-8.87472
cent	-8.87564
▁principale	-8.8785
▁scena	-8.87858
ol	-8.8809
▁veniva	-8.88094
▁mu	-8.8815
▁carlo	-8.88173
am	-8.88222
▁provincia	-8.88253
▁auto	-8.8828
▁sviluppo	-8.88542
▁militare	-8.88611
▁metri	-8.88812
▁grado	-8.8885
▁sopra	-8.88976
▁museo	-8.89008
▁fratello	-8.89015
▁scopre	-8.8925
der	-8.8934
▁mare	-8.89352
▁11	-8.89395
altro	-8.89423
").	-8.89526
▁lu	-8.89661
50	-8.89707
▁politica	-8.89718
▁fase	-8.89722
▁john	-8.89935
den	-8.89971
schi	-8.89996
▁ex	-8.90176
▁molte	-8.90228
gra	-8.90384
▁continua	-8.90403
zzi	-8.90418
▁forte	-8.9042
▁deriva	-8.90433
▁deve	-8.90467
▁stazione	-8.90705
acqua	-8.9087
▁30	-8.90925
▁milano	-8.90993
as	-8.9101
▁nave	-8.91034
et	-8.91273
▁ge	-8.91318
▁occupa	-8.91409
▁du	-8.91473
▁numerosi	-8.91613
▁2003	-8.91614
area	-8.91904
▁castello	-8.92113
rre	-8.92174
▁egli	-8.92224
nella	-8.92508
▁stella	-8.92686
it	-8.92723
▁caratteristiche	-8.92794
▁strada	-8.93035
▁1.	-8.93069
ac	-8.93187
est	-8.93474
▁parti	-8.93504
▁he	-8.93524
▁palazzo	-8.93526
▁2001	-8.9355
▁gol	-8.93768
▁mercato	-8.9402
men	-8.94025
▁probabilmente	-8.94288
▁25	-8.94351
▁lascia	-8.94465
▁2002	-8.94528
▁risulta	-8.94671
zze	-8.94953
▁descrizione	-8.94988
ine	-8.95244
▁stelle	-8.95288
▁mano	-8.95325
▁massima	-8.95363
stro	-8.95698
▁successivo	-8.95749
uso	-8.9597
▁dipinto	-8.95981
tiva	-8.95989
ed	-8.96116
▁cm	-8.96138
▁mostra	-8.96204
gu	-8.96264
nato	-8.96294
▁am	-8.96415
rne	-8.96423
ismo	-8.96447
▁corte	-8.9646
▁quelli	-8.96542
tò	-8.9656
▁inglese	-8.96599
▁ni	-8.96657
pu	-8.96777
▁pubblica	-8.97116
ko	-8.97209
▁costruzione	-8.97267
ero	-8.97273
▁conte	-8.97297
▁formazione	-8.9749
▁popolazione	-8.98011
▁2000	-8.98127
▁nuovamente	-8.98239
▁principali	-8.98246
▁h	-8.98488
▁ragazza	-8.98501
▁paese	-8.98523
enza	-8.98948
▁diventa	-8.99081
fica	-8.99225
▁arriva	-8.99306
▁indica	-8.99517
▁importanti	-8.99528
▁libro	-9.00201
”	-9.00644
ts	-9.00766
ut	-9.00813
▁internazionale	-9.0083
▁im	-9.00881
▁parigi	-9.00936
ton	-9.01004
▁importante	-9.01011
zzazione	-9.01042
▁venezia	-9.01175
▁prende	-9.0126
ari	-9.01314
cor	-9.01332
▁navi	-9.01556
ghi	-9.0164
nne	-9.01762
bb	-9.02068
iche	-9.02231
▁forze	-9.02423
▁libera	-9.025
▁potere	-9.02512
▁anti	-9.02578
rd	-9.028
▁iii	-9.02886
▁terza	-9.02958
▁passato	-9.02993
▁gara	-9.03079
▁partita	-9.03131
les	-9.03305
▁data	-9.0348
ya	-9.0352
▁vede	-9.0363
▁guida	-9.03697
ana	-9.0374
▁dato	-9.03778
▁prese	-9.03872
0	-9.03926
▁gioco	-9.03962
▁fre	-9.04125
▁origine	-9.04149
▁gruppi	-9.04286
▁facendo	-9.04295
ante	-9.04305
▁torre	-9.04533
▁membri	-9.04556
olo	-9.04711
▁york	-9.04829
▁2010	-9.04841
▁breve	-9.04873
▁varie	-9.04943
▁24	-9.05176
università	-9.05256
▁capi	-9.05306
▁gra	-9.05318
▁figura	-9.05372
tur	-9.0541
».	-9.05512
oso	-9.05581
▁2009	-9.05657
▁brano	-9.05665
▁joey	-9.05956
▁jo	-9.06024
im	-9.06112
mon	-9.06112
au	-9.06143
▁ritrova	-9.06162
mar	-9.06333
▁pochi	-9.06482
▁pu	-9.06554
▁cal	-9.06777
▁parco	-9.06853
ccia	-9.06895
▁man	-9.06956
uti	-9.06969
▁dawson	-9.07029
ten	-9.07167
ordine	-9.0717
▁vicino	-9.0731
ph	-9.0735
▁accetta	-9.07592
▁super	-9.07593
▁situazione	-9.07867
gt	-9.07987
ura	-9.08174
▁forza	-9.08177
ze	-9.08338
amente	-9.08432
▁divisione	-9.08654
ora	-9.08723
▁premio	-9.08732
▁ja	-9.08841
ina	-9.08878
mbi	-9.08917
ione	-9.09018
▁partecipa	-9.09034
▁comprende	-9.09087
▁23	-9.09146
ide	-9.092
esercito	-9.09204
.000	-9.09311
ori	-9.09329
oli	-9.09385
gui	-9.09401
▁sarà	-9.09692
9	-9.09821
▁avuto	-9.09856
▁napoli	-9.10164
▁edizione	-9.10307
mina	-9.10338
▁pari	-9.10361
▁rimane	-9.10363
▁musicale	-9.10385
▁nu	-9.10426
aria	-9.1051
▁massa	-9.10562
dia	-9.10572
pri	-9.10589
▁wa	-9.10746
▁contratto	-9.10764
ani	-9.1088
▁qualche	-9.11011
▁cre	-9.11019
▁paesi	-9.11027
nale	-9.11054
▁personaggio	-9.11176
▁gi	-9.11199
▁avevano	-9.1123
▁nuove	-9.11291
▁usa	-9.11375
▁piazza	-9.11435
▁modello	-9.1159
▁riporta	-9.1172
▁personaggi	-9.11732
uta	-9.11746
▁figli	-9.11832
isce	-9.11837
▁locale	-9.11881
▁chiamato	-9.11896
▁greco	-9.11937
▁notte	-9.12037
▁realizzato	-9.12156
▁soli	-9.12172
▁inizialmente	-9.1219
▁hi	-9.12372
▁ministero	-9.12458
▁pietro	-9.12464
qua	-9.12497
▁diretto	-9.12498
▁otto	-9.12506
▁tanto	-9.1252
▁chiede	-9.12524
poli	-9.12628
▁superiore	-9.12753
▁ufficiale	-9.12821
vers	-9.12878
▁controllo	-9.12889
▁capitale	-9.1305
▁motore	-9.13065
á	-9.13176
▁j	-9.13178
graf	-9.13449
▁ver	-9.13582
▁essa	-9.13623
▁radio	-9.13669
▁bru	-9.13765
▁tor	-9.13794
▁colore	-9.13823
▁ultimi	-9.13938
stico	-9.14004
▁festival	-9.14236
▁distretto	-9.14237
▁spe	-9.14485
▁sinistra	-9.14538
▁stampa	-9.14839
▁ber	-9.14857
▁mal	-9.14898
ario	-9.15052
estate	-9.15129
▁assieme	-9.15137
rri	-9.15169
nes	-9.15254
▁mor	-9.15377
▁rimase	-9.15447
▁processo	-9.15452
nna	-9.15659
val	-9.15757
▁19	-9.15781
▁disputa	-9.15891
▁contra	-9.16154
▁z	-9.16271
età	-9.16384
▁essendo	-9.16489
stica	-9.16611
▁entra	-9.16707
▁gu	-9.16882
▁tramite	-9.16968
▁ko	-9.17124
▁compagnia	-9.17179
▁comincia	-9.17182
▁vuole	-9.17271
▁prova	-9.17286
▁26	-9.17567
▁piccolo	-9.17597
ini	-9.17659
nz	-9.17925
tiche	-9.18008
▁presto	-9.18029
▁22	-9.18047
▁costa	-9.18079
▁corre	-9.1813
▁pan	-9.18131
▁frattempo	-9.182
oro	-9.1837
▁programma	-9.18522
▁entrambi	-9.18523
▁paolo	-9.18557
▁seguente	-9.18562
enti	-9.18569
▁cap	-9.1871
▁fronte	-9.18825
_	-9.18846
ppi	-9.189
▁duca	-9.19152
bra	-9.19442
20	-9.19458
▁iv	-9.19717
col	-9.19742
▁est	-9.19838
sen	-9.19879
▁ragazzo	-9.20084
▁vescovo	-9.20084
▁elementi	-9.20104
▁21	-9.20112
-1	-9.20308
▁sette	-9.20335
▁sci	-9.20545
trice	-9.20628
sc	-9.20654
▁intanto	-9.2073
▁baviera	-9.21039
rato	-9.21063
▁giovani	-9.21234
cci	-9.21262
▁nuovi	-9.21361
▁completamente	-9.21433
▁rock	-9.21481
▁matrimonio	-9.21484
erà	-9.21579
dal	-9.21698
▁visto	-9.21706
off	-9.2174
lio	-9.21763
for	-9.21764
▁peter	-9.21771
▁pen	-9.21805
▁hu	-9.21839
▁uomo	-9.22226
▁numerose	-9.22228
▁afferma	-9.22309
▁appena	-9.22372
▁appare	-9.22484
10	-9.22575
▁funzione	-9.22657
▁iniziò	-9.22708
wi	-9.2273
▁mon	-9.22795
▁vinto	-9.22798
▁tro	-9.23057
▁fiume	-9.23306
▁mani	-9.23313
ö	-9.23322
▁reca	-9.23353
▁giocatore	-9.23357
gni	-9.23446
▁vero	-9.23509
▁trasforma	-9.23577
▁1998	-9.23639
mm	-9.23673
▁tecnica	-9.23962
▁2011	-9.23972
sioni	-9.24101
▁capitano	-9.24294
▁&	-9.24302
ley	-9.24308
▁piccola	-9.24351
scu	-9.24372
ista	-9.24476
▁collega	-9.2461
▁teatro	-9.24623
tivi	-9.24652
▁poter	-9.24782
▁bal	-9.24789
▁basa	-9.24826
▁movimento	-9.24955
▁germania	-9.24959
▁distanza	-9.24964
▁decise	-9.25112
san	-9.25128
rs	-9.25205
▁don	-9.25277
▁riuscì	-9.2532
ris	-9.25453
▁testo	-9.25551
▁termina	-9.25556
pre	-9.2563
▁29	-9.25631
▁vinse	-9.25639
endo	-9.25823
▁tempi	-9.25828
lin	-9.25863
anti	-9.25891
▁destra	-9.25891
▁valle	-9.25931
▁trovano	-9.25933
▁truppe	-9.25958
fu	-9.25995
▁rete	-9.26245
▁santo	-9.26327
▁ju	-9.26401
▁ser	-9.26493
▁sant	-9.26568
▁ormai	-9.26634
▁artisti	-9.26653
▁luigi	-9.26685
▁utilizza	-9.2703
uri	-9.27073
▁crede	-9.27085
▁incontra	-9.27089
▁spazio	-9.27418
▁sé	-9.27641
▁jack	-9.27669
▁locali	-9.27824
▁noto	-9.27907
▁giro	-9.2796
rt	-9.28189
▁vide	-9.2819
ir	-9.28207
▁problemi	-9.28339
▁attacca	-9.28343
▁velocità	-9.28346
onda	-9.28486
tici	-9.285
edizione	-9.28544
▁bene	-9.28621
▁por	-9.28633
▁cappella	-9.28684
▁comando	-9.28706
▁vol	-9.28716
▁video	-9.28814
▁parla	-9.28859
▁località	-9.29071
▁poteva	-9.29085
▁consiglio	-9.29149
▁spa	-9.2921
▁direzione	-9.29225
ly	-9.29264
80	-9.29306
attività	-9.29333
▁lingua	-9.29359
ü	-9.29378
▁statunitense	-9.29378
▁scritto	-9.29381
▁pal	-9.29409
▁morì	-9.2941
ite	-9.295
▁pri	-9.29525
▁girone	-9.29535
▁buon	-9.29748
▁abbia	-9.29833
▁pacey	-9.2984
▁lotta	-9.29939
sol	-9.29989
ino	-9.30006
▁tedesco	-9.30076
▁bianco	-9.30076
▁visita	-9.30083
...	-9.30269
12	-9.30396
▁par	-9.3043
▁ter	-9.30444
we	-9.30491
▁voce	-9.30493
▁pensa	-9.30617
▁2004	-9.30641
nese	-9.30662
▁2012	-9.30795
▁cro	-9.30812
▁ovvero	-9.30936
▁dunque	-9.31132
▁mezzo	-9.31178
▁sub	-9.31188
▁italiani	-9.31198
▁unità	-9.31211
▁salva	-9.31225
nico	-9.31433
▁canta	-9.31445
▁cura	-9.31474
▁rapporto	-9.31488
tive	-9.31639
▁poli	-9.31655
tor	-9.31689
▁dallo	-9.31732
▁canzoni	-9.31843
▁ragazzi	-9.31843
▁prodotto	-9.31843
▁stagioni	-9.31843
amore	-9.31851
▁ordina	-9.31913
▁jen	-9.32048
▁cosa	-9.32129
▁storico	-9.32206
idea	-9.32284
▁sala	-9.32482
mu	-9.32553
▁resta	-9.32567
▁contea	-9.32583
▁occasione	-9.32719
▁porto	-9.3272
30	-9.32873
▁cultura	-9.3291
▁arti	-9.32913
▁dimensioni	-9.32918
▁sociale	-9.3293
▁spiega	-9.331
à	-9.33214
▁giuseppe	-9.33279
▁uefa	-9.33279
una	-9.33305
berg	-9.33306
°	-9.33523
▁miglior	-9.33546
▁intorno	-9.33646
▁nominato	-9.33704
rica	-9.33767
bilità	-9.33768
▁pace	-9.33873
▁bra	-9.33975
▁senso	-9.34013
tari	-9.34039
▁direttore	-9.34069
▁ferma	-9.34078
▁dimostra	-9.34209
▁sole	-9.34371
▁osserva	-9.34436
xi	-9.34496
gan	-9.34501
▁cer	-9.34513
▁ste	-9.34702
▁doppia	-9.34737
▁1996	-9.34743
nk	-9.34774
▁comunità	-9.34816
▁vince	-9.34849
stici	-9.35099
▁dovuto	-9.35234
car	-9.35345
▁camera	-9.35373
▁sposa	-9.35378
ron	-9.35413
▁relazione	-9.35478
cl	-9.35509
shi	-9.3552
▁detto	-9.35651
▁pittore	-9.35844
▁linee	-9.35866
ler	-9.359
▁giu	-9.35917
colo	-9.35963
q	-9.35965
▁antonio	-9.36112
amento	-9.36137
▁sor	-9.36278
▁stadio	-9.36283
nc	-9.36286
▁risultati	-9.36318
▁red	-9.36389
op	-9.36465
▁riguarda	-9.36481
lmente	-9.3654
rum	-9.36617
▁proprietà	-9.36625
▁natura	-9.36814
pie	-9.36942
▁critica	-9.36975
▁torino	-9.37014
cer	-9.37173
▁alto	-9.37247
▁ki	-9.37275
▁forme	-9.37471
unione	-9.37619
▁firma	-9.37708
▁cinema	-9.37718
▁scopo	-9.37794
unica	-9.37862
▁stabili	-9.37986
mini	-9.38025
▁piuttosto	-9.38095
▁interpreta	-9.38143
▁effetti	-9.3819
▁ris	-9.3822
▁rende	-9.38255
▁2013	-9.3849
▁av	-9.38585
ller	-9.38594
stre	-9.38596
cro	-9.38622
ker	-9.38645
▁villa	-9.38779
ran	-9.38992
▁sha	-9.39007
▁villaggio	-9.39038
gne	-9.39091
ug	-9.391
▁membro	-9.3924
▁sebbene	-9.3924
▁tradizione	-9.39242
mbo	-9.39325
▁cantante	-9.39359
▁cioè	-9.39398
▁za	-9.39427
▁colori	-9.39669
▁paul	-9.39817
▁messa	-9.39829
gua	-9.40006
▁firenze	-9.40011
▁successivi	-9.40063
attuale	-9.40111
▁gioca	-9.40204
▁mura	-9.40312
▁portato	-9.40329
40	-9.40368
▁nazionali	-9.40398
▁ottenne	-9.40399
▁diritto	-9.40427
▁tali	-9.40471
▁possibilità	-9.40538
▁brani	-9.40557
▁raggiungere	-9.40665
▁carica	-9.40951
▁ke	-9.40954
▁tour	-9.40991
▁esso	-9.41006
all	-9.41132
▁acc	-9.41366
▁ricorda	-9.41644
▁croce	-9.41664
osi	-9.41735
▁dieci	-9.41802
ando	-9.41824
▁cha	-9.41834
▁lettera	-9.41858
);	-9.41861
▁mese	-9.41952
▁van	-9.42073
scono	-9.42238
▁bambino	-9.42359
▁misura	-9.4236
▁basilica	-9.42364
▁popolo	-9.42375
▁28	-9.42388
▁euro	-9.42394
▁austriaco	-9.42448
nica	-9.42603
up	-9.4266
bus	-9.42696
▁individua	-9.43048
▁nato	-9.43215
nder	-9.4339
▁fan	-9.43431
▁tal	-9.43453
▁conserva	-9.43495
▁–	-9.43539
▁gira	-9.4354
▁riferimento	-9.43554
▁versioni	-9.43578
ers	-9.43592
▁stava	-9.43693
▁pratica	-9.43869
▁zio	-9.43903
▁marino	-9.43934
▁ottenere	-9.43956
▁protagonista	-9.43956
▁1995	-9.43965
▁gar	-9.44129
▁superficie	-9.44162
etti	-9.44221
▁ama	-9.44308
▁principe	-9.44327
▁reale	-9.44331
▁complesso	-9.44359
▁1999	-9.44369
▁lunga	-9.44386
gge	-9.44425
▁fonda	-9.44581
▁casi	-9.4464
▁turno	-9.44714
dis	-9.44763
▁nacque	-9.44764
13	-9.44784
dd	-9.44826
▁compi	-9.44967
▁sport	-9.45059
▁attualmente	-9.4517
edificio	-9.45184
▁dice	-9.45231
_1	-9.45255
▁situato	-9.45267
▁marina	-9.45436
▁essi	-9.45496
▁attorno	-9.45579
▁zoey	-9.45582
▁sposta	-9.45588
sche	-9.45689
essi	-9.4572
▁marco	-9.45778
▁at	-9.45825
osa	-9.4593
▁originale	-9.4596
90	-9.45961
▁amici	-9.46013
▁seguenti	-9.46038
▁bordo	-9.46075
atti	-9.46116
▁popolare	-9.46183
▁europa	-9.46238
▁rifiuta	-9.464
▁fer	-9.46501
▁utilizzato	-9.4655
come	-9.46697
▁formato	-9.46712
▁servi	-9.46752
▁sconfitta	-9.46813
▁composto	-9.46813
▁promozione	-9.46813
▁orientale	-9.46815
▁vive	-9.46848
▁ric	-9.46859
rebbe	-9.46889
▁episodi	-9.46894
▁andare	-9.46963
▁ore	-9.47008
▁ecc	-9.47041
60	-9.47169
▁valore	-9.47243
▁considerato	-9.47249
▁simile	-9.47251
min	-9.47269
stri	-9.47269
▁27	-9.47337
'8	-9.47344
pl	-9.47419
▁vecchio	-9.47461
fra	-9.47482
os	-9.47569
art	-9.47594
▁nomina	-9.47622
88	-9.47647
▁maestro	-9.47649
▁direttamente	-9.47724
▁nasce	-9.47739
inter	-9.47742
▁forse	-9.47854
▁romano	-9.47881
▁alta	-9.47916
ger	-9.47985
dere	-9.47989
▁partito	-9.48063
▁1991	-9.4807
ssimo	-9.48249
entrò	-9.4829
ight	-9.48388
altare	-9.48487
▁modelli	-9.48497
▁persona	-9.48505
▁spagna	-9.4851
▁unico	-9.48546
pol	-9.48624
▁tardi	-9.48628
▁permette	-9.48773
ji	-9.48785
▁effettua	-9.48801
lica	-9.48875
▁ponte	-9.4889
▁venti	-9.48965
▁bassa	-9.49057
▁giocatori	-9.4906
▁rosso	-9.49176
artista	-9.49207
▁chiamata	-9.49295
hu	-9.49297
▁rileva	-9.49356
▁oggetto	-9.4938
▁dietro	-9.49382
00	-9.49502
▁scar	-9.49511
▁viaggio	-9.49668
▁lorenzo	-9.49754
▁meglio	-9.49757
▁1994	-9.49762
▁pietra	-9.49776
▁piccoli	-9.49791
dra	-9.49879
ndolo	-9.49939
▁tele	-9.4996
▁bel	-9.49965
han	-9.5013
del	-9.50176
▁principalmente	-9.50182
▁racconta	-9.50182
▁1992	-9.5019
▁2015	-9.50195
▁troppo	-9.50201
mba	-9.50262
▁rapi	-9.50284
▁el	-9.50323
▁house	-9.50348
id	-9.50447
▁abb	-9.5048
vis	-9.50502
▁fanno	-9.50716
rg	-9.50724
▁lancia	-9.50775
▁terre	-9.50886
▁diede	-9.50994
19	-9.51019
imperatore	-9.51042
▁madonna	-9.51089
▁armi	-9.51188
▁festa	-9.51239
▁signore	-9.51301
▁tur	-9.51415
▁risultato	-9.51471
▁notevole	-9.51477
▁ufficiali	-9.51484
▁gesti	-9.51586
▁tenta	-9.51608
tz	-9.51612
ona	-9.51628
▁andata	-9.5185
rico	-9.51877
▁precedenti	-9.5192
▁ordine	-9.51927
▁successiva	-9.51939
▁america	-9.51952
par	-9.52081
atto	-9.52147
▁ku	-9.52192
▁separa	-9.52296
▁vettura	-9.52346
▁quarto	-9.52347
▁principessa	-9.5238
▁men	-9.52491
▁pra	-9.52528
99	-9.52538
▁raggiunge	-9.52658
trici	-9.52704
port	-9.52719
▁figure	-9.52785
▁scelta	-9.52884
▁cambio	-9.53226
▁1993	-9.53233
▁31	-9.53305
▁resto	-9.53364
▁nonché	-9.53478
▁rosa	-9.53587
non	-9.5362
▁sale	-9.53659
rò	-9.53672
▁sorella	-9.53674
▁fuoco	-9.53694
▁campione	-9.53711
▁esiste	-9.53841
uto	-9.53878
▁von	-9.53891
cio	-9.53934
▁occidentale	-9.53975
ida	-9.53982
▁aiuta	-9.54029
▁note	-9.54077
▁particolarmente	-9.5413
post	-9.54197
▁militari	-9.54261
zzato	-9.54318
▁atti	-9.54396
▁lì	-9.54413
gg	-9.54438
▁riceve	-9.54472
rk	-9.54502
cha	-9.54517
▁propri	-9.54561
▁1997	-9.54567
▁sf	-9.54579
▁dedica	-9.54588
▁qualità	-9.54771
▁pisa	-9.54852
tato	-9.54882
unico	-9.5491
▁der	-9.54948
▁pianeta	-9.55009
telli	-9.55056
▁crisi	-9.55099
▁alberto	-9.55225
▁bre	-9.55357
95	-9.55454
▁ministro	-9.55466
fici	-9.55471
ché	-9.55494
▁maggiori	-9.556
▁bor	-9.55649
auto	-9.55836
▁scene	-9.55874
▁ciclo	-9.55913
▁davanti	-9.55924
-2	-9.55968
▁collaborazione	-9.55987
▁assume	-9.55997
▁st	-9.56092
▁sviluppa	-9.56104
lega	-9.56127
▁100	-9.56281
ure	-9.56291
▁isola	-9.56342
▁allenatore	-9.56344
▁determina	-9.56359
▁problema	-9.56365
▁tornare	-9.56396
▁informazioni	-9.56415
▁(18	-9.566
▁modifica	-9.56653
▁favore	-9.56718
▁completa	-9.56724
▁wi	-9.56758
▁colombia	-9.56821
▁futuro	-9.56827
▁2016	-9.56836
▁polizia	-9.56843
▁monta	-9.56844
arrivo	-9.56845
▁chiama	-9.56888
▁blu	-9.56917
dor	-9.56919
my	-9.56947
▁certo	-9.56983
▁segna	-9.57229
▁trovare	-9.57311
▁perse	-9.57338
▁vera	-9.57357
▁dura	-9.57422
▁condizioni	-9.57426
▁des	-9.57451
▁gas	-9.57539
stru	-9.57645
ku	-9.57694
lan	-9.57714
▁preso	-9.57722
tre	-9.57751
▁gri	-9.57783
▁realizzazione	-9.57815
organizzazione	-9.57868
ion	-9.57874
bia	-9.57888
▁vo	-9.57908
▁tim	-9.57982
burg	-9.58071
▁lavora	-9.58207
▁1988	-9.58216
▁chiese	-9.58239
▁conta	-9.58278
ps	-9.5829
▁area	-9.58362
▁massimo	-9.58485
▁marito	-9.58532
▁celebra	-9.58564
▁migliori	-9.5862
▁play	-9.58652
▁coppia	-9.5867
▁fisica	-9.5868
▁th	-9.59005
▁dichiara	-9.59023
▁case	-9.59032
▁donne	-9.59052
ros	-9.59116
▁arma	-9.59314
jo	-9.59376
▁ospita	-9.59419
▁considera	-9.59525
▁categoria	-9.59606
▁provenient	-9.59608
▁2014	-9.59619
▁sociali	-9.59635
iano	-9.59655
▁acqua	-9.59658
▁filo	-9.59675
▁basso	-9.59719
ang	-9.59726
ub	-9.59977
ft	-9.60005
▁interno	-9.60015
▁michael	-9.60077
▁diocesi	-9.60078
▁quartiere	-9.60081
▁capacità	-9.60082
▁invita	-9.60179
▁almeno	-9.60258
tru	-9.60371
almente	-9.60421
▁raggiunse	-9.60551
▁teoria	-9.60554
▁potenza	-9.6056
▁capocannoniere	-9.60595
▁caccia	-9.60625
▁situata	-9.60654
▁migliore	-9.60768
▁nero	-9.60885
▁gal	-9.61021
▁guerriera	-9.61027
▁origini	-9.61027
▁civile	-9.61031
▁sangue	-9.61105
don	-9.61148
▁david	-9.61158
▁partecipanti	-9.61165
▁tv	-9.61192
▁ur	-9.61465
ā	-9.61506
▁raccolta	-9.61506
▁romanzo	-9.61506
▁componenti	-9.61532
zz	-9.61607
▁nove	-9.61685
america	-9.61697
od	-9.61805
▁star	-9.6191
ban	-9.61919
vio	-9.61987
▁memoria	-9.61987
▁2017	-9.61998
▁abita	-9.62064
▁foto	-9.62086
▁pare	-9.62282
▁cast	-9.62337
▁sezione	-9.62368
▁giappone	-9.62378
▁quell	-9.62418
▁significa	-9.62429
▁differenza	-9.6247
▁percorso	-9.62471
▁conferma	-9.62473
▁campioni	-9.625
tten	-9.62575
▁composizione	-9.62591
75	-9.62666
▁et	-9.62673
▁appa	-9.62678
▁austria	-9.62902
▁nascita	-9.62956
▁composta	-9.62957
parti	-9.62964
ct	-9.62965
▁eletto	-9.63026
ssima	-9.63299
▁ab	-9.63419
▁santuario	-9.63443
▁presenze	-9.63476
▁ch	-9.63501
▁jean	-9.63513
▁tratto	-9.63566
65	-9.63572
▁eventi	-9.63694
▁robert	-9.63706
esi	-9.63757
▁potrebbe	-9.63761
'11	-9.63901
▁tecnico	-9.63933
▁ucciso	-9.63934
▁passò	-9.63934
mette	-9.63954
gue	-9.63972
▁scontro	-9.63978
_2	-9.64084
▁raffigura	-9.64084
▁classificata	-9.64112
▁conservato	-9.64152
▁rif	-9.64243
▁meridionale	-9.64426
▁passeggeri	-9.64426
▁bambini	-9.64426
▁letto	-9.64555
▁fonti	-9.6464
impero	-9.64698
▁conosce	-9.64758
iva	-9.64845
▁campionati	-9.64921
▁inferiore	-9.64921
▁comunale	-9.64921
▁giornalista	-9.64954
▁amico	-9.64981
▁us	-9.6508
by	-9.65086
▁russia	-9.65095
▁mette	-9.65193
▁milita	-9.65236
▁fondo	-9.65427
▁distribuzione	-9.65442
tter	-9.6555
▁cat	-9.65578
elle	-9.65627
etta	-9.65703
(	-9.65713
▁tema	-9.65788
▁unito	-9.65827
▁sicilia	-9.6592
▁speciale	-9.6592
▁genitori	-9.65937
rna	-9.66076
▁gia	-9.66115
▁gua	-9.66128
▁rin	-9.66147
▁mc	-9.66375
▁dati	-9.66378
▁regioni	-9.66422
▁sistemi	-9.66423
▁maniera	-9.66462
▁maglia	-9.66476
▁londra	-9.6652
▁ger	-9.66573
▁forni	-9.66588
out	-9.66671
▁possa	-9.66693
cy	-9.66887
▁commerciale	-9.66926
▁soldati	-9.66926
▁richard	-9.66931
▁portò	-9.66946
▁giochi	-9.66967
▁cattedrale	-9.66979
▁tempio	-9.67051
▁posti	-9.67086
▁moto	-9.6709
▁pio	-9.67408
▁conflitto	-9.67434
▁enrico	-9.67438
▁cielo	-9.67442
▁oppure	-9.67477
▁fratelli	-9.67487
▁cup	-9.67517
▁franco	-9.67538
▁test	-9.6757
▁match	-9.67602
▁punta	-9.67743
▁ovest	-9.67812
▁identifica	-9.67857
▁prepara	-9.67862
▁40	-9.67869
▁uccidere	-9.67906
▁anima	-9.67938
▁tracce	-9.67949
▁uso	-9.67951
▁her	-9.67967
▁dirige	-9.67971
▁aree	-9.67972
gono	-9.68006
▁gre	-9.68055
37	-9.68233
▁anch	-9.68288
europa	-9.68311
▁pat	-9.68354
▁sch	-9.68368
▁minore	-9.68409
▁confronti	-9.68458
ingresso	-9.68458
▁1990	-9.6847
▁siano	-9.68481
rli	-9.68543
gene	-9.68561
bert	-9.6863
▁zone	-9.6866
▁pubblicazione	-9.68668
▁50	-9.68686
▁pia	-9.68784
96	-9.68828
cella	-9.68931
▁regista	-9.68973
▁narra	-9.68982
▁tentativo	-9.68992
86	-9.69057
can	-9.69275
▁forti	-9.69283
vin	-9.69335
anni	-9.69382
elli	-9.69423
▁statua	-9.69497
▁sorge	-9.695
rge	-9.6954
▁piedi	-9.6956
ssero	-9.69569
▁camp	-9.69625
▁sera	-9.69672
▁romani	-9.69682
16	-9.69684
▁diventare	-9.69759
nici	-9.69806
tus	-9.69815
39	-9.69823
nata	-9.6983
ese	-9.69856
▁registra	-9.69861
orda	-9.69865
die	-9.69867
▁george	-9.70018
▁1973	-9.70019
▁difesa	-9.70022
▁autore	-9.7006
▁motivo	-9.7012
▁avesse	-9.70134
isti	-9.70247
▁cattura	-9.70283
▁sto	-9.70385
intera	-9.70434
▁ferrovia	-9.70452
▁difficoltà	-9.70535
▁contiene	-9.70535
▁campi	-9.7059
▁lago	-9.70619
lon	-9.70703
▁né	-9.7072
85	-9.70768
▁mono	-9.70809
▁romana	-9.70819
gion	-9.70891
associazione	-9.70904
▁ultima	-9.70924
98	-9.70989
▁riserva	-9.71064
▁fondata	-9.71072
▁2018	-9.71074
ham	-9.71135
▁milan	-9.71174
";	-9.71253
▁età	-9.7132
▁edifici	-9.71375
ammasso	-9.71451
▁naturale	-9.7153
res	-9.71564
ð	-9.7159
▁ottenuto	-9.7159
▁rapporti	-9.7159
▁oggetti	-9.7159
▁consegna	-9.71592
▁tela	-9.71594
15	-9.71609
▁2019	-9.7161
rus	-9.71656
▁gene	-9.7167
sio	-9.71705
▁dà	-9.71821
ux	-9.71946
ser	-9.72003
▁cop	-9.72028
▁nebulosa	-9.72122
▁soltanto	-9.72122
▁visibile	-9.72123
sten	-9.72187
▁ally	-9.72339
▁speciali	-9.72352
archi	-9.7236
rdi	-9.72423
▁usato	-9.7254
ello	-9.72583
▁costruito	-9.72659
ian	-9.7273
▁gare	-9.72777
▁asse	-9.72799
▁creato	-9.7281
▁1981	-9.72948
▁vesti	-9.72969
▁proprie	-9.72998
▁cade	-9.73027
rgli	-9.73105
11	-9.73108
▁ammess	-9.73209
▁settore	-9.73219
▁color	-9.73255
chia	-9.73266
▁avendo	-9.7328
▁organizza	-9.73326
▁bianca	-9.73344
▁creazione	-9.73344
nga	-9.73352
line	-9.73548
▁influenza	-9.73574
ny	-9.73582
▁buona	-9.73593
▁cose	-9.73629
▁svolge	-9.73634
bar	-9.7366
▁europea	-9.73736
▁autori	-9.73736
je	-9.73737
▁semi	-9.7374
▁acque	-9.7374
▁parole	-9.73742
▁politico	-9.73767
▁verrà	-9.73802
▁team	-9.73816
▁neo	-9.73822
▁vivo	-9.73885
▁minori	-9.73904
▁materiale	-9.7392
gh	-9.7398
▁esce	-9.74026
▁facciata	-9.74065
kh	-9.74076
▁we	-9.7414
97	-9.74169
▁ultime	-9.74278
▁famoso	-9.74279
▁1989	-9.74289
▁diretta	-9.74357
▁adotta	-9.74381
55	-9.74387
▁record	-9.7441
operazione	-9.74506
-20	-9.74506
▁pressi	-9.7453
ms	-9.74534
▁aperto	-9.74585
▁arte	-9.74603
▁colpi	-9.74653
vid	-9.74658
▁commissione	-9.74673
ó	-9.74794
iscono	-9.74801
▁competizioni	-9.74825
▁conosciuto	-9.74825
▁carlton	-9.74825
▁campagna	-9.74825
▁titoli	-9.74893
▁verde	-9.74974
▁coppe	-9.74984
▁partecipazione	-9.75025
bel	-9.75112
▁episodio	-9.75118
▁pop	-9.75151
ls	-9.75153
stu	-9.75173
asse	-9.7532
ō	-9.75374
▁attraversa	-9.75374
▁bologna	-9.75375
▁filippo	-9.75381
pen	-9.75466
▁crea	-9.75476
▁stanza	-9.7563
gar	-9.75648
▁demo	-9.75675
▁scala	-9.7588
44	-9.75913
▁tar	-9.75917
▁celebre	-9.75927
▁cristo	-9.75929
▁stima	-9.75953
grafia	-9.75968
▁colle	-9.76018
▁creare	-9.761
▁manca	-9.76235
nger	-9.76237
▁(200	-9.76443
▁circonda	-9.76457
▁integra	-9.76491
▁secoli	-9.76494
▁chase	-9.76614
▁cen	-9.76624
▁posta	-9.76848
unità	-9.76852
▁semplice	-9.76936
immagine	-9.76946
▁attiva	-9.77019
č	-9.77041
▁spirito	-9.77041
pon	-9.77199
▁fal	-9.77213
▁edificio	-9.77253
▁missione	-9.77306
":	-9.77374
▁affronta	-9.77451
▁personale	-9.77491
89	-9.77499
▁santi	-9.77521
▁islandese	-9.77608
▁stessi	-9.77675
met	-9.77679
gro	-9.7781
▁passaggio	-9.77853
66	-9.77861
des	-9.77926
▁morto	-9.77965
▁caratterizza	-9.77994
▁servizi	-9.78007
67	-9.78011
otti	-9.78162
▁ottiene	-9.78168
▁tecniche	-9.78168
▁televisiva	-9.78168
▁vedere	-9.78413
ju	-9.78419
47	-9.78524
▁you	-9.78673
▁singoli	-9.78736
rci	-9.78818
▁provoca	-9.78823
í	-9.78826
▁cardinale	-9.78867
▁spar	-9.78903
▁fran	-9.78926
▁comandante	-9.7898
rle	-9.79001
▁logan	-9.79046
▁realizzata	-9.79057
-0	-9.79102
▁volo	-9.79191
azienda	-9.79238
▁monastero	-9.79307
ov	-9.79357
▁definitivamente	-9.79364
▁francesi	-9.79377
▁conto	-9.79384
▁riforma	-9.79425
14	-9.79471
▁scritta	-9.79529
72	-9.79749
forma	-9.79761
aldo	-9.79765
arco	-9.79791
70	-9.7986
▁cratere	-9.79883
▁rispettivamente	-9.79887
▁cuore	-9.79895
▁conoscenza	-9.79926
▁nulla	-9.79953
77	-9.7997
▁manda	-9.80042
92	-9.80091
84	-9.80155
,5	-9.80198
▁progetti	-9.80202
▁pala	-9.80219
▁pol	-9.80314
▁0	-9.80325
▁piani	-9.80357
ù	-9.80381
▁interesse	-9.80403
▁1980	-9.80478
▁chris	-9.8049
▁umani	-9.80514
▁world	-9.80591
ppa	-9.80599
giu	-9.80727
▁tedeschi	-9.81042
▁dollari	-9.81042
▁philip	-9.81045
▁regina	-9.81128
▁fl	-9.81262
25	-9.81275
etto	-9.81495
▁rai	-9.81519
sk	-9.81612
▁conclude	-9.81626
▁spagnolo	-9.81626
▁quarta	-9.81627
▁ricevuto	-9.8163
ville	-9.81642
▁ball	-9.81698
▁poteri	-9.81774
▁2.	-9.81796
▁leonardo	-9.81823
log	-9.81872
49	-9.81953
spir	-9.82074
▁funziona	-9.82158
assi	-9.82204
nni	-9.82221
▁perciò	-9.82229
▁nicola	-9.82236
▁dottor	-9.82279
lato	-9.82298
▁settimana	-9.82419
cc	-9.82472
76	-9.82646
aglia	-9.82714
▁detta	-9.82729
▁avviene	-9.82812
93	-9.82819
▁evitare	-9.82819
▁ossia	-9.82821
cho	-9.82854
▁dovette	-9.82897
▁city	-9.82952
▁generi	-9.83085
▁bassi	-9.83095
▁regola	-9.8313
▁applica	-9.83166
▁giocare	-9.83232
▁accompagna	-9.83252
▁nessun	-9.83257
38	-9.83285
▁carta	-9.83306
▁terreno	-9.83334
▁raccoglie	-9.83401
▁simbolo	-9.83435
tal	-9.83444
▁xx	-9.83485
meri	-9.83617
▁bro	-9.83625
sero	-9.83626
▁corona	-9.83628
▁costituito	-9.83645
ndone	-9.83767
vita	-9.83769
▁segno	-9.83801
▁trono	-9.83815
autore	-9.83898
▁norvegese	-9.84
▁sicurezza	-9.84
▁fianco	-9.84
▁trasporto	-9.84002
▁simili	-9.8402
▁luca	-9.84031
▁inizio	-9.84048
▁reali	-9.84073
▁clan	-9.84149
▁canale	-9.84181
▁incontro	-9.84272
temporaneamente	-9.8443
ucci	-9.84495
▁male	-9.84546
▁dedicata	-9.84556
▁domina	-9.84573
▁giocato	-9.84593
▁economica	-9.84626
por	-9.84627
▁xix	-9.84628
▁show	-9.84635
▁generalmente	-9.84663
▁sino	-9.84682
▁zo	-9.84769
▁muta	-9.84796
▁prote	-9.84828
▁passo	-9.84828
▁gl	-9.84874
▁bur	-9.84929
amico	-9.84976
▁territori	-9.85011
▁je	-9.85049
tina	-9.85137
▁recita	-9.85184
amministrazione	-9.85209
▁strutture	-9.85209
▁sposò	-9.85209
▁minuti	-9.8521
▁rivista	-9.85211
van	-9.85224
▁dedicato	-9.85329
▁italiane	-9.85355
▁portare	-9.8541
▁cl	-9.85434
▁latino	-9.85569
▁relativa	-9.85622
amo	-9.85726
▁tom	-9.85787
industria	-9.85812
▁moderna	-9.85827
▁finalmente	-9.85838
aiuto	-9.85839
▁james	-9.85864
▁status	-9.85865
alleanza	-9.85927
94	-9.86056
voli	-9.86085
▁pas	-9.8629
▁qualsiasi	-9.86432
▁sconfitto	-9.86432
▁entrambe	-9.86432
▁scrisse	-9.86433
–	-9.86455
▁particolari	-9.86508
enta	-9.86554
▁greca	-9.86594
▁vanno	-9.86595
alto	-9.8674
gente	-9.86854
▁testi	-9.86887
▁rientra	-9.86891
▁passare	-9.86993
▁ritorna	-9.87028
▁femminile	-9.87049
▁1979	-9.87059
▁leader	-9.8706
▁1987	-9.8706
▁riprese	-9.87062
▁vincendo	-9.87078
▁elezioni	-9.87134
▁aiuto	-9.87177
▁utilizzata	-9.87184
zie	-9.87193
apertura	-9.87206
▁prove	-9.87226
angelo	-9.8728
▁africa	-9.87292
▁prendere	-9.8732
▁scrive	-9.87438
▁antica	-9.87468
terra	-9.87524
▁stre	-9.87621
▁giorgio	-9.8767
▁1982	-9.8767
▁raggiunto	-9.8767
▁libertà	-9.87671
lis	-9.87678
▁conseguenza	-9.87679
▁har	-9.87695
▁verifica	-9.87827
▁ag	-9.87878
▁deadpool	-9.87896
stiche	-9.87942
48	-9.87944
▁batt	-9.87995
voca	-9.8811
▁basi	-9.88121
nus	-9.88184
▁carattere	-9.88296
▁vittorie	-9.88296
▁pertanto	-9.88308
▁costruita	-9.88312
▁costituzione	-9.88315
▁gestione	-9.88352
▁valori	-9.88371
ens	-9.88378
▁organi	-9.88417
▁professore	-9.88427
▁dona	-9.88573
74	-9.88704
▁ponti	-9.88758
▁vincere	-9.8876
▁live	-9.88885
bell	-9.88894
▁giornata	-9.88924
▁spider	-9.88925
▁quadro	-9.88926
▁culto	-9.88933
▁xvi	-9.8894
▁lasciando	-9.88952
▁entrare	-9.88977
ambito	-9.88997
▁contrario	-9.89003
let	-9.89112
▁lavorare	-9.89152
▁costretto	-9.89195
azioni	-9.89303
accademia	-9.89338
▁mario	-9.89364
iamo	-9.89414
▁supera	-9.89546
▁cittadina	-9.89557
▁esemplari	-9.89557
▁pittura	-9.89557
istituto	-9.89558
cola	-9.89578
▁tratti	-9.89601
letto	-9.8962
▁taglia	-9.89623
▁fini	-9.89715
lice	-9.89758
▁informa	-9.89795
▁presentato	-9.89862
▁filosofia	-9.89887
iglia	-9.89922
ab	-9.89994
▁intende	-9.9001
▁mark	-9.90115
▁vent	-9.90143
▁capoluogo	-9.90194
▁include	-9.90194
▁immediatamente	-9.90194
▁titolare	-9.90195
▁nazione	-9.90226
▁isole	-9.9024
mann	-9.9025
▁piccole	-9.903
mis	-9.90334
▁vice	-9.90557
▁esordi	-9.90614
ag	-9.90641
▁messo	-9.90653
▁comunica	-9.90657
▁interessa	-9.9066
01	-9.90776
▁entro	-9.90828
▁famiglie	-9.90835
▁uscito	-9.90836
▁ufficialmente	-9.90838
▁avvenuta	-9.90847
▁occhi	-9.90852
▁edizioni	-9.90876
▁flotta	-9.90888
▁au	-9.909
▁dom	-9.9092
ther	-9.90922
07	-9.90923
▁beni	-9.90928
▁luna	-9.90985
▁fatta	-9.91074
▁trans	-9.91089
▁sente	-9.91249
69	-9.91283
▁mary	-9.91296
dr	-9.91331
anna	-9.9134
▁motori	-9.91458
91	-9.91476
▁1984	-9.91492
▁prof	-9.91513
▁avanti	-9.91544
▁genera	-9.91547
18	-9.91579
▁laurea	-9.91586
▁rive	-9.91659
▁successi	-9.91682
▁collabora	-9.91698
mber	-9.9172
▁60	-9.91788
▁vecchia	-9.91795
59	-9.918
▁epoca	-9.91889
▁geo	-9.92015
ffer	-9.92023
▁interna	-9.92073
lino	-9.92105
2.	-9.92124
▁denominazione	-9.9213
▁computer	-9.9213
▁introdott	-9.9213
▁nipote	-9.9213
▁2020	-9.92163
▁resistenza	-9.92167
▁settimane	-9.92176
▁faceva	-9.92177
▁jazz	-9.92178
68	-9.92319
▁gioc	-9.92387
▁avvicina	-9.92561
0.000	-9.92639
▁mus	-9.92645
ane	-9.92752
▁risale	-9.92783
▁tedesca	-9.92783
▁prodotti	-9.92784
▁1970	-9.92795
▁1944	-9.92796
▁diritti	-9.9283
▁federazione	-9.9283
tsu	-9.92831
▁vicina	-9.9284
▁meta	-9.92856
▁fatti	-9.92939
ense	-9.92961
▁diversa	-9.92993
metro	-9.93003
▁cominci	-9.93017
nn	-9.93027
▁sostituito	-9.93117
▁nomi	-9.93273
▁records	-9.93284
vision	-9.93288
▁consiste	-9.93336
▁long	-9.93361
tornò	-9.93366
▁1978	-9.93441
▁1972	-9.93453
▁convento	-9.93455
▁poeta	-9.9346
▁quantità	-9.93461
▁guglielmo	-9.93493
▁trattato	-9.93509
▁sacro	-9.93514
51	-9.93541
▁rico	-9.93672
▁frequenta	-9.93683
▁abbandona	-9.93787
▁mise	-9.93947
ose	-9.94044
▁concentra	-9.94044
▁culturale	-9.9405
▁lasciato	-9.94084
▁immagini	-9.94103
abbazia	-9.94112
▁simboli	-9.94131
▁alessandro	-9.94198
▁top	-9.94262
▁colpo	-9.94422
28	-9.94441
▁poche	-9.94482
▁combattere	-9.94569
▁fossero	-9.94728
▁bla	-9.94736
▁cattolica	-9.9477
▁prodotta	-9.94771
▁caratteristica	-9.94779
▁1986	-9.94784
▁ngc	-9.94785
▁ricevette	-9.94845
!	-9.94934
▁cam	-9.95037
▁shi	-9.95169
ach	-9.95178
iere	-9.9518
▁pubblicata	-9.95195
53	-9.95369
-3	-9.95381
▁quarti	-9.95416
▁windows	-9.95441
▁incontri	-9.95443
▁diploma	-9.95443
▁giunge	-9.95446
▁1967	-9.95454
▁veronica	-9.95459
▁settentrionale	-9.9552
av	-9.95524
▁saint	-9.95537
▁gio	-9.95565
iana	-9.95572
cr	-9.95668
cità	-9.95676
nati	-9.95717
bal	-9.95721
▁neu	-9.95881
▁45	-9.95882
▁partecipato	-9.95912
▁sin	-9.95923
uk	-9.95965
79	-9.95986
▁cambia	-9.96045
▁cosiddett	-9.96045
▁comporta	-9.96076
uc	-9.96109
▁strumenti	-9.96118
▁concetto	-9.96124
▁1983	-9.96126
▁ramza	-9.96135
antica	-9.9616
▁trovava	-9.96174
21	-9.9622
17	-9.96287
▁fondazione	-9.96291
▁resti	-9.96303
▁fuga	-9.96343
sul	-9.96348
▁classificate	-9.96372
▁braccio	-9.9638
35	-9.96408
▁pianta	-9.96428
lico	-9.96462
▁roberto	-9.96474
▁segue	-9.96525
▁lasciare	-9.96531
▁nazioni	-9.96555
▁faccia	-9.96565
▁definito	-9.96566
▁necessario	-9.96568
▁gradi	-9.96662
▁medio	-9.96678
zzare	-9.96739
▁ob	-9.96747
▁cd	-9.9677
▁1971	-9.96807
▁commedia	-9.96808
▁doveva	-9.96818
▁(1	-9.96916
▁pesca	-9.96938
▁animali	-9.97029
▁jane	-9.9719
dan	-9.97259
▁schi	-9.97327
▁uccide	-9.97374
esistenza	-9.97374
em	-9.97463
▁chiude	-9.97486
▁concerto	-9.9749
▁estende	-9.9749
▁1976	-9.97495
▁chiaro	-9.97495
▁sportiva	-9.97496
▁clima	-9.975
▁lunghezza	-9.97501
▁ten	-9.97559
▁danni	-9.97646
▁zu	-9.97674
logica	-9.97682
▁nega	-9.97683
zzata	-9.97752
▁fortemente	-9.97789
▁spin	-9.97853
logo	-9.97966
ap	-9.98086
▁carinzia	-9.98172
idi	-9.98213
▁riprende	-9.98221
▁ebbero	-9.98253
▁martin	-9.98263
▁consent	-9.98274
▁castel	-9.98359
▁annuncia	-9.98428
▁reso	-9.98734
fl	-9.98806
▁q	-9.9885
▁arrivò	-9.98866
▁guardia	-9.98876
▁1985	-9.9888
▁originariamente	-9.9892
ling	-9.98951
▁multi	-9.98979
▁copie	-9.9898
62	-9.99028
▁post	-9.99031
episodio	-9.99054
06	-9.99056
▁impiega	-9.99082
ibile	-9.99143
▁leggenda	-9.99172
mia	-9.99258
▁canoni	-9.99368
▁pericolo	-9.995
and	-9.99556
indipendenza	-9.99566
▁mondiali	-9.99566
▁national	-9.99567
▁propone	-9.99567
▁benedetto	-9.9957
▁macchina	-9.99571
▁vincitore	-9.99581
▁fall	-9.99606
▁sesto	-9.99629
etichetta	-9.9964
▁sorta	-9.99644
aggio	-9.99673
▁california	-9.9969
▁venendo	-9.9975
gnano	-9.99804
hy	-9.99811
▁marca	-9.99882
▁legato	-9.9996
▁regia	-9.99971
tha	-9.99976
▁premi	-10.0005
▁nata	-10.0006
▁que	-10.0006
▁fri	-10.0013
▁affreschi	-10.0027
▁visione	-10.0028
▁fondato	-10.003
abile	-10.0031
▁homer	-10.0035
gico	-10.0036
▁presta	-10.0042
▁war	-10.0054
ovest	-10.0061
▁presa	-10.0063
▁mini	-10.0074
ring	-10.0074
ndola	-10.0082
▁torri	-10.0086
▁pot	-10.0097
▁champions	-10.0098
▁cittadini	-10.0098
▁sessanta	-10.0098
▁cagliari	-10.0098
▁differenti	-10.0098
▁morta	-10.0098
▁russo	-10.0105
alta	-10.0109
▁cri	-10.0117
▁allontana	-10.0118
▁stanno	-10.0136
▁naturali	-10.0136
32	-10.0136
▁imped	-10.0147
pres	-10.016
200	-10.016
▁200	-10.0164
▁bio	-10.0169
▁volontà	-10.0169
▁regime	-10.0169
▁libri	-10.017
▁giunse	-10.017
▁storici	-10.017
▁minaccia	-10.017
ardi	-10.0172
▁allena	-10.0184
▁bell	-10.0197
▁sali	-10.02
arma	-10.0204
▁acquis	-10.0209
▁antichi	-10.021
▁qualifica	-10.0211
▁anna	-10.0221
▁americano	-10.0226
▁ultimo	-10.0239
▁esistono	-10.0241
▁richiesta	-10.0241
▁sardegna	-10.0241
▁doppio	-10.0241
▁scoperto	-10.0241
▁spettacolo	-10.0242
▁lasciò	-10.0242
▁pittori	-10.0242
▁cavallo	-10.0243
▁traccia	-10.0243
irono	-10.0244
▁centri	-10.0244
impresa	-10.0245
▁pezzi	-10.0249
52	-10.0253
73	-10.0255
press	-10.0256
▁iniziato	-10.0262
▁debutto	-10.0266
rvi	-10.027
▁strade	-10.0272
▁acquista	-10.0272
▁xii	-10.0289
▁defini	-10.0291
▁mode	-10.0297
enne	-10.0307
gina	-10.0307
▁aero	-10.0309
▁amore	-10.0311
▁musicali	-10.0312
▁partecipò	-10.0314
▁trasferì	-10.0314
▁combattimento	-10.0314
42	-10.0317
▁riguardo	-10.0325
▁cur	-10.0327
atura	-10.0327
▁scelto	-10.0332
▁avvenne	-10.0335
▁india	-10.034
▁she	-10.0341
24	-10.0343
71	-10.0344
▁andrea	-10.0347
evento	-10.0356
27	-10.0366
mil	-10.0368
▁fiori	-10.0369
▁mandato	-10.0376
▁anzi	-10.0383
▁documenta	-10.0383
▁conosciuta	-10.0387
▁prevalentemente	-10.0387
▁bronzo	-10.0387
▁standard	-10.0387
▁intitolato	-10.0387
▁chiave	-10.0387
▁charles	-10.0388
▁codice	-10.0391
ssimi	-10.0395
▁convince	-10.0396
▁partecipare	-10.0405
46	-10.0416
▁frank	-10.0417
▁atto	-10.0422
▁diventando	-10.0435
▁portando	-10.0438
▁mostr	-10.0449
▁sito	-10.0451
▁avvi	-10.0453
▁competizione	-10.046
▁fabbrica	-10.046
▁responsabile	-10.046
▁settanta	-10.046
▁crescita	-10.046
▁stefano	-10.046
▁canada	-10.0461
▁confine	-10.0461
▁morti	-10.0466
lly	-10.0466
▁compito	-10.0473
nel	-10.0475
▁varia	-10.0481
▁diretti	-10.0486
▁finali	-10.0486
cina	-10.0493
▁ispira	-10.05
▁antico	-10.0511
▁insegna	-10.0511
mila	-10.0511
▁flo	-10.0513
▁trovato	-10.0513
▁costru	-10.052
▁paga	-10.0521
▁realizza	-10.0522
▁dipende	-10.0527
▁andò	-10.0528
▁onda	-10.053
▁(20	-10.0534
▁britannico	-10.0534
▁religiosa	-10.0534
▁scoperta	-10.0534
▁internazionali	-10.0534
▁caduta	-10.0534
▁monaco	-10.0535
▁geografia	-10.0535
▁1969	-10.0536
▁termini	-10.0536
▁letteratura	-10.0537
▁limita	-10.0548
▁privata	-10.0561
▁soggetto	-10.0562
argento	-10.0566
▁y	-10.0566
▁frazione	-10.0573
1,	-10.0573
▁rappresentazion	-10.0575
▁combatt	-10.0587
▁legno	-10.0591
sch	-10.0605
▁leone	-10.0607
▁steve	-10.0609
▁soccer	-10.0609
▁accanto	-10.0609
45	-10.0609
▁genova	-10.0609
▁quota	-10.0609
▁fortuna	-10.061
▁pale	-10.061
venuta	-10.0614
54	-10.0616
arono	-10.0618
▁parlamento	-10.0621
▁cv	-10.0624
▁impegna	-10.0625
▁nessuno	-10.0628
ak	-10.0642
▁nati	-10.0649
_3	-10.0667
▁pure	-10.0674
▁costi	-10.0684
▁football	-10.0684
▁pilota	-10.0685
▁giudice	-10.0685
▁corilo	-10.0685
▁1977	-10.0686
▁ipotesi	-10.0688
rino	-10.0688
▁periodi	-10.0692
antico	-10.0696
▁inser	-10.0699
▁pesci	-10.07
▁alcun	-10.0706
▁on	-10.0711
▁tornato	-10.0711
colare	-10.0713
ottobre	-10.0715
▁adatta	-10.0717
gri	-10.0718
mus	-10.0723
ama	-10.0733
▁xviii	-10.0734
dini	-10.0735
kt	-10.0744
▁los	-10.0747
▁controlla	-10.0751
▁addirittura	-10.076
▁fondamentale	-10.076
▁novanta	-10.076
▁rivolta	-10.076
▁volume	-10.076
▁sapere	-10.076
▁1974	-10.0761
▁sfida	-10.0761
▁colonia	-10.0762
83	-10.0765
▁dettagli	-10.0771
▁rocca	-10.0774
stanti	-10.0778
▁sviluppato	-10.0779
nelli	-10.0787
▁costante	-10.0787
esca	-10.0792
▁tipi	-10.0794
▁rossi	-10.0797
ré	-10.0803
▁canto	-10.0805
▁decidono	-10.0836
▁ottanta	-10.0836
▁angeles	-10.0836
▁funzioni	-10.0837
▁primavera	-10.0837
▁1968	-10.0837
tan	-10.0839
tes	-10.084
▁stili	-10.0844
▁rivoluzione	-10.0846
▁mettere	-10.0847
star	-10.0849
▁bagno	-10.0852
intero	-10.0856
▁estrema	-10.086
▁costituita	-10.0864
vel	-10.0867
▁impianto	-10.0876
sha	-10.0889
43	-10.0896
sson	-10.0899
batt	-10.0901
cal	-10.0903
▁trenta	-10.0904
gr	-10.0909
▁dramma	-10.0911
▁difficile	-10.0913
▁necessità	-10.0913
▁qualcosa	-10.0913
▁palermo	-10.0913
▁uscire	-10.0914
▁notizia	-10.0915
▁politiche	-10.0916
▁quinn	-10.0916
▁giallo	-10.0917
▁inizi	-10.0917
▁borgo	-10.092
▁=	-10.0925
ey	-10.093
▁maschile	-10.094
▁corrente	-10.0941
essa	-10.0945
▁vivere	-10.0957
uscita	-10.0966
▁mari	-10.0979
▁medi	-10.0981
▁chiara	-10.0983
rati	-10.0984
▁congregazione	-10.0991
▁europei	-10.0991
▁zi	-10.0993
▁interamente	-10.0997
▁music	-10.1002
▁contatto	-10.1004
len	-10.1007
ira	-10.1009
venti	-10.102
22	-10.1028
cen	-10.1042
▁esse	-10.1045
▁sovra	-10.1046
▁suona	-10.105
▁storica	-10.106
▁sol	-10.1061
abbia	-10.1063
▁inghilterra	-10.1065
▁georgia	-10.1069
▁ricerche	-10.1069
▁giacomo	-10.1069
▁diffusione	-10.107
▁aumenta	-10.1083
▁piena	-10.1086
▁assiste	-10.1089
din	-10.1097
▁(2	-10.1101
▁grave	-10.1105
▁dov	-10.1111
▁lista	-10.1112
anche	-10.1116
istica	-10.1122
▁complessi	-10.1127
▁dominio	-10.1128
tch	-10.1129
pan	-10.1135
▁parlare	-10.1136
▁considerata	-10.1139
▁pubblici	-10.1141
▁diventato	-10.1141
▁chilometri	-10.1148
▁modalità	-10.1148
▁bisogno	-10.1148
▁inglesi	-10.1148
omonima	-10.1148
▁galleria	-10.1148
▁brasile	-10.1148
▁umano	-10.1148
▁principi	-10.1152
▁lettere	-10.1152
▁circondario	-10.1153
▁spalle	-10.1153
▁livelli	-10.1153
▁fru	-10.1157
▁alberi	-10.116
▁attivo	-10.1161
venire	-10.1162
▁spazi	-10.1175
entrata	-10.1185
▁mil	-10.1203
aspetto	-10.1206
▁organizzato	-10.1206
▁special	-10.1209
abate	-10.1214
dica	-10.1226
▁ludovico	-10.1227
▁assoluta	-10.1227
▁salute	-10.1227
▁groenlandia	-10.1227
▁vergine	-10.1228
▁costruire	-10.1229
▁metal	-10.1231
26	-10.1233
kin	-10.1234
▁numeri	-10.1236
▁semplicemente	-10.1242
rina	-10.1246
▁accordo	-10.1254
▁sugli	-10.1255
▁europeo	-10.1256
▁legenda	-10.1259
ness	-10.1262
▁net	-10.1263
impianto	-10.1266
dine	-10.1266
ologia	-10.1282
uda	-10.1286
▁scuole	-10.1307
▁superiori	-10.1307
▁compagno	-10.1307
▁possesso	-10.1307
▁umana	-10.1307
▁statue	-10.1307
▁federico	-10.1307
▁1958	-10.1308
▁francesca	-10.1308
▁franchigia	-10.1308
▁parola	-10.1308
▁1975	-10.1309
▁indossa	-10.1309
▁accesso	-10.1312
empi	-10.1317
messo	-10.1328
▁vale	-10.1334
▁argentina	-10.1338
letti	-10.1338
bor	-10.1339
tin	-10.1341
ella	-10.1345
origine	-10.1348
cus	-10.135
500	-10.1362
29	-10.1367
▁marte	-10.1379
ski	-10.138
▁mel	-10.1381
▁aspetto	-10.1386
▁alterna	-10.1387
▁meccanica	-10.1388
▁rimasto	-10.1388
▁vittorio	-10.1388
▁decisione	-10.1388
▁devono	-10.1388
▁tecnologia	-10.1389
▁1966	-10.1389
▁banca	-10.139
▁ragione	-10.1393
▁guarda	-10.1394
▁classi	-10.1407
▁sedi	-10.1409
▁compar	-10.141
▁louis	-10.1416
▁idea	-10.1416
▁rossa	-10.1419
tel	-10.142
simo	-10.1421
rn	-10.1422
har	-10.1424
ev	-10.1431
▁operazioni	-10.1431
tengono	-10.1435
▁autorità	-10.1446
ava	-10.1449
▁design	-10.1453
▁assegna	-10.1468
▁disponibile	-10.1469
▁disposizione	-10.1469
▁soluzione	-10.1469
▁europee	-10.1469
▁fascia	-10.147
▁1964	-10.147
▁farsi	-10.147
36	-10.147
denti	-10.1491
▁interpretato	-10.1495
▁clo	-10.1496
▁elettro	-10.1502
▁natale	-10.1509
▁ferro	-10.1511
austria	-10.1512
▁marmo	-10.1513
▁australia	-10.1513
▁viola	-10.1521
▁angeli	-10.153
missione	-10.153
▁lisa	-10.1536
idae	-10.1546
▁suddivis	-10.1549
▁ricco	-10.1551
▁giustizia	-10.1551
▁mantenere	-10.1551
▁stemma	-10.1551
▁pianeti	-10.1551
▁libero	-10.1552
▁1943	-10.1552
▁1945	-10.1552
zu	-10.1553
▁dodici	-10.1553
▁coste	-10.1561
▁attuale	-10.1561
▁riun	-10.1563
▁bush	-10.1568
▁rappresentato	-10.1569
ón	-10.1572
▁commission	-10.1576
dito	-10.1577
000	-10.159
▁sovrano	-10.1591
▁caratteri	-10.1607
▁permesso	-10.1624
cini	-10.1627
gus	-10.1631
▁commercio	-10.1633
▁divisjon	-10.1633
▁industriale	-10.1634
▁ritenut	-10.1634
▁concerti	-10.1635
▁gamma	-10.1636
titudine	-10.1636
▁motivi	-10.1644
tata	-10.1646
▁possiede	-10.1652
▁porte	-10.1654
ye	-10.1655
mani	-10.1659
64	-10.1659
▁bart	-10.1669
▁pul	-10.1669
▁not	-10.1671
▁bon	-10.1672
▁american	-10.1673
▁retro	-10.1677
incontro	-10.1679
occasione	-10.1679
▁fonte	-10.1682
▁compare	-10.1682
▁island	-10.1703
▁senato	-10.171
▁generali	-10.171
▁william	-10.1711
assemblea	-10.1717
▁1961	-10.1717
▁concluse	-10.1717
▁posteriore	-10.1717
▁spagnola	-10.1717
▁malattia	-10.1717
▁luoghi	-10.1717
▁contenente	-10.1717
ction	-10.1717
▁deciso	-10.1717
▁tavola	-10.1717
▁1962	-10.1718
▁verità	-10.1724
▁accol	-10.1727
▁capisce	-10.1727
uno	-10.1728
▁nobili	-10.1728
▁traffico	-10.1741
▁costo	-10.1755
▁unica	-10.1774
razione	-10.1776
▁caratterizzato	-10.1789
ning	-10.1793
▁istituito	-10.1801
▁smith	-10.1801
▁capitolo	-10.1801
▁quinta	-10.1802
▁relazioni	-10.1802
▁novità	-10.1803
hard	-10.1804
▁comportamento	-10.1808
▁diverso	-10.1809
▁protezione	-10.1816
▁soldi	-10.1816
mul	-10.1823
23	-10.1824
▁king	-10.1825
▁bri	-10.1846
rate	-10.1853
altezza	-10.1853
▁carne	-10.1865
▁mont	-10.1867
▁studiosi	-10.188
ys	-10.1881
▁religione	-10.1886
▁gesù	-10.1886
▁school	-10.1886
▁vendita	-10.1886
▁dinastia	-10.1886
▁fusione	-10.1887
ant	-10.1887
▁fuggire	-10.1887
▁berlino	-10.1887
dice	-10.1888
▁personalità	-10.1888
▁messi	-10.1895
uali	-10.191
ndogli	-10.1932
energia	-10.1936
▁tende	-10.1948
nari	-10.195
▁sacra	-10.1952
heim	-10.1957
▁cilindri	-10.1971
▁filangieri	-10.1971
▁panchina	-10.1971
▁toscana	-10.1971
▁leggermente	-10.1971
universo	-10.1971
▁1960	-10.1973
▁potesse	-10.1974
▁riferisc	-10.1974
▁harry	-10.1975
▁turisti	-10.1976
▁consente	-10.1981
▁comunicazione	-10.1985
▁classica	-10.199
58	-10.1991
▁normale	-10.1994
cast	-10.1998
cura	-10.2007
ney	-10.2008
nio	-10.2012
▁son	-10.2016
▁ordini	-10.2031
▁latina	-10.2031
ram	-10.2036
▁vecchi	-10.2043
▁aereo	-10.2046
▁essers	-10.2056
▁significato	-10.2057
▁appartenenti	-10.2057
▁continuò	-10.2057
▁descrive	-10.2057
▁rilievo	-10.2057
▁contenuto	-10.2057
▁manager	-10.2057
wood	-10.2058
▁battista	-10.2059
▁economico	-10.206
well	-10.2061
▁offre	-10.2061
▁sigla	-10.2063
▁tuttora	-10.2064
▁successive	-10.2067
▁monti	-10.2068
roma	-10.2069
05	-10.2092
▁magnet	-10.2094
ara	-10.2096
▁parete	-10.2101
▁gian	-10.2102
▁alpi	-10.2102
africa	-10.2108
▁osservazione	-10.2111
▁importanza	-10.2116
forme	-10.2123
▁salvare	-10.2127
▁utilizzati	-10.2137
cessione	-10.2141
obiettivo	-10.2144
▁appartiene	-10.2144
▁brillante	-10.2144
▁religiosi	-10.2144
▁maggioranza	-10.2144
▁giunta	-10.2144
▁discografica	-10.2146
▁potente	-10.2147
▁andie	-10.2155
accor	-10.2155
▁my	-10.216
logia	-10.217
▁ram	-10.2172
▁rad	-10.218
▁vii	-10.2192
▁ampli	-10.2195
▁giri	-10.2199
▁carte	-10.22
sport	-10.2212
▁apre	-10.2217
▁scrittore	-10.2218
▁durata	-10.2226
▁obbliga	-10.2231
▁giornate	-10.2232
▁heihachi	-10.2232
tekken	-10.2232
▁sportivo	-10.2232
▁guerre	-10.2232
▁compreso	-10.2232
▁riescono	-10.2232
formi	-10.2233
▁stan	-10.2235
▁college	-10.2239
▁cina	-10.224
▁perdita	-10.2241
▁affrontare	-10.2244
▁soppresso	-10.2252
▁mac	-10.2252
amma	-10.2253
▁onore	-10.226
▁(16	-10.2263
09	-10.2265
▁condizione	-10.2266
eroe	-10.2268
▁sab	-10.2272
▁precedentemente	-10.2275
hen	-10.228
dina	-10.228
incarico	-10.2287
vità	-10.2292
▁energia	-10.2296
ford	-10.2301
▁danno	-10.2313
▁appartenente	-10.232
▁proposta	-10.2321
▁esercita	-10.2321
▁strumento	-10.2321
▁seurat	-10.2321
▁quinto	-10.233
▁mezzi	-10.2331
▁bella	-10.2342
▁supporto	-10.2345
):	-10.2352
▁statistiche	-10.2362
ula	-10.2374
▁porti	-10.2376
▁trent	-10.2384
▁sperimenta	-10.2392
▁duomo	-10.2393
▁colloca	-10.2404
▁matt	-10.2405
▁abbastanza	-10.241
▁magnitudine	-10.241
▁rugby	-10.241
▁facilmente	-10.241
▁vittime	-10.241
aeroporto	-10.241
architetto	-10.241
▁aerea	-10.2411
▁michele	-10.2411
▁produttore	-10.2411
▁2021	-10.2412
usa	-10.2413
▁dr	-10.2414
▁materiali	-10.2426
▁bocca	-10.2428
▁resa	-10.243
armata	-10.2433
▁mira	-10.2441
▁boy	-10.246
economia	-10.2469
▁pie	-10.2471
▁grecia	-10.2477
▁merc	-10.2478
▁portale	-10.2478
▁max	-10.2481
▁realizzare	-10.2488
▁religioso	-10.25
▁riuscendo	-10.25
▁tradizionale	-10.25
▁paziente	-10.25
esecuzione	-10.25
▁universitari	-10.25
▁august	-10.25
▁prestito	-10.25
▁playoff	-10.2502
▁largo	-10.2505
▁frutto	-10.2506
▁qua	-10.2507
▁high	-10.2518
▁bob	-10.2525
▁stesse	-10.2528
▁black	-10.2532
accordo	-10.2534
▁contribu	-10.255
▁richiama	-10.2553
▁noi	-10.2555
▁den	-10.2557
▁batte	-10.2565
▁noti	-10.2569
▁asso	-10.2578
▁petr	-10.2579
xj	-10.2582
▁alcuna	-10.2583
▁alti	-10.259
▁tribù	-10.2591
▁conclusa	-10.2591
▁apprezza	-10.2591
▁famosa	-10.2591
▁aerei	-10.2592
impression	-10.2595
▁montagna	-10.2595
▁successione	-10.2596
▁segnala	-10.2597
▁preda	-10.2607
▁carr	-10.2609
ía	-10.2616
▁esperienza	-10.2618
markt	-10.2619
quest	-10.2626
▁guadagna	-10.2626
▁fila	-10.2633
▁mole	-10.2634
▁pier	-10.2636
▁ducato	-10.264
▁peso	-10.2649
1)	-10.2654
scher	-10.2655
ufficio	-10.2659
▁rou	-10.2661
▁passi	-10.2664
▁reazione	-10.2668
▁sar	-10.2669
▁sfrutta	-10.2677
▁bianchi	-10.2682
▁ragazze	-10.2682
▁contenuti	-10.2683
▁somma	-10.2683
▁musei	-10.2683
▁vantaggio	-10.2684
▁assunto	-10.2684
▁cresce	-10.2684
▁dipinti	-10.2686
▁giotto	-10.269
▁statale	-10.2692
▁divisa	-10.2693
ken	-10.2694
▁definizione	-10.2696
▁ghiaccio	-10.2696
03	-10.2702
▁hockey	-10.2705
▁ammasso	-10.2709
▁combatte	-10.2709
▁spareggio	-10.2712
▁cinquanta	-10.2715
icamente	-10.2721
feld	-10.2724
▁protesta	-10.2726
▁condanna	-10.2727
▁avanza	-10.2736
▁leggi	-10.2744
assedio	-10.2747
umi	-10.2759
▁gui	-10.2772
▁colonne	-10.2773
▁margherita	-10.2775
▁talvolta	-10.2775
▁assicura	-10.2775
▁1963	-10.2775
▁civili	-10.2775
▁portiere	-10.2776
▁wilson	-10.2776
▁politici	-10.2778
▁dichiarato	-10.2778
interpretazione	-10.2778
▁scultura	-10.2779
sino	-10.2779
▁preoccupa	-10.2781
▁mancanza	-10.2781
oggi	-10.2784
nic	-10.2793
anima	-10.2798
▁ferdinando	-10.2799
▁promoss	-10.2799
▁prevede	-10.2801
▁wade	-10.2804
2,	-10.2809
▁associazione	-10.2812
▁università	-10.2815
▁rese	-10.2826
esperienza	-10.2841
▁acquistato	-10.2841
▁appia	-10.2846
ambiente	-10.2846
3,	-10.2855
▁utilizzare	-10.2858
▁principio	-10.2864
▁residenza	-10.2868
▁henry	-10.2869
▁esprime	-10.2869
▁sfondo	-10.2869
▁1954	-10.287
▁danneggi	-10.2871
▁scrivere	-10.2871
▁finché	-10.2872
▁manifestazione	-10.2877
▁stretta	-10.2878
▁rom	-10.2886
nny	-10.2888
▁fissa	-10.2896
▁restaur	-10.2896
hl	-10.2898
▁corpi	-10.2904
▁pieno	-10.2913
▁ruba	-10.2913
▁coordina	-10.2916
bba	-10.2917
occupazione	-10.2936
accesso	-10.2938
side	-10.2946
▁effetto	-10.2952
▁affida	-10.2957
ref	-10.2959
torio	-10.296
gemeinde	-10.2963
▁distingue	-10.2963
▁software	-10.2963
▁washington	-10.2963
aprile	-10.2963
▁costituisce	-10.2964
▁tenuto	-10.2964
▁xiv	-10.2967
▁chiari	-10.2976
▁(17	-10.2976
▁certa	-10.2978
▁giapponese	-10.2981
▁90	-10.2985
▁sansepolcro	-10.2987
utilizzo	-10.2987
dosso	-10.2995
arca	-10.3001
▁comanda	-10.3005
▁volto	-10.3006
messa	-10.301
▁armate	-10.3011
▁greci	-10.3024
▁sonora	-10.3027
▁dar	-10.3034
estero	-10.3049
▁maschi	-10.3054
▁bast	-10.3056
▁fenomeno	-10.3058
▁regionale	-10.3058
▁prigione	-10.3058
evole	-10.3058
▁assunse	-10.3058
▁trasmissione	-10.3058
▁licenza	-10.3058
▁calcistica	-10.3059
▁recenti	-10.3059
▁tira	-10.3062
▁spedizione	-10.3063
▁poté	-10.3063
▁notare	-10.3068
▁attacco	-10.307
ois	-10.3075
spor	-10.3081
▁poss	-10.3087
ting	-10.309
▁antiche	-10.309
04	-10.3097
▁accad	-10.3099
ive	-10.3099
tana	-10.3102
▁vento	-10.3104
▁rob	-10.3105
flusso	-10.3118
ung	-10.3139
▁recente	-10.3144
▁serata	-10.3147
▁affianca	-10.3154
▁venduto	-10.3154
invasione	-10.3154
▁australe	-10.3154
▁vettore	-10.3155
▁polonia	-10.3156
▁nhl	-10.3156
▁turismo	-10.3157
quo	-10.3158
▁aperta	-10.3159
▁storie	-10.3159
▁trascors	-10.316
amica	-10.3161
▁mela	-10.3164
▁risalent	-10.3164
mont	-10.3164
▁messico	-10.3167
gor	-10.317
▁nick	-10.3171
▁sorpresa	-10.3185
▁ispirato	-10.3191
▁soci	-10.3194
▁art	-10.3196
▁compagni	-10.3201
▁materia	-10.3201
▁magi	-10.3202
pati	-10.3203
▁innamora	-10.3205
▁under	-10.3213
▁assegnato	-10.3213
▁stellare	-10.3218
!"	-10.3227
agosto	-10.3228
grafica	-10.3239
▁vola	-10.3243
ez	-10.3247
▁university	-10.3251
▁bandiera	-10.3251
▁nemici	-10.3251
▁vienna	-10.3252
▁combina	-10.3252
▁conduce	-10.3252
▁ottavi	-10.3252
▁1948	-10.3253
▁treni	-10.3253
▁ritiro	-10.3253
▁scienza	-10.3256
▁copertina	-10.3256
▁esterno	-10.3257
ep	-10.3262
▁medico	-10.3265
▁cinese	-10.3266
▁500	-10.3267
▁coltiva	-10.3267
▁commerciali	-10.3276
▁zia	-10.3281
▁ix	-10.3282
attore	-10.3283
▁appunto	-10.3288
▁scoprire	-10.3288
fino	-10.3292
2)	-10.3301
bur	-10.3304
quan	-10.3308
▁legati	-10.3314
tezza	-10.332
▁esibi	-10.3329
▁turchi	-10.3329
▁dicendo	-10.3329
▁interni	-10.3337
▁versa	-10.3339
▁fecero	-10.3342
▁deten	-10.3345
▁aggiunge	-10.3349
▁britannica	-10.3349
▁protagonisti	-10.3349
▁virtù	-10.3349
autunno	-10.3349
▁detroit	-10.3349
▁risponde	-10.3349
▁studenti	-10.3349
▁concluso	-10.3349
▁prestigio	-10.3349
▁evidente	-10.3349
▁dispone	-10.335
▁penisola	-10.3354
▁geni	-10.3356
▁dotato	-10.3356
▁regolare	-10.3357
▁spinge	-10.3357
porta	-10.336
rone	-10.3366
▁nba	-10.3372
▁pelle	-10.3376
▁collaborato	-10.3382
▁regge	-10.3385
▁aiutare	-10.3393
▁fama	-10.3396
▁elemento	-10.3403
▁accusa	-10.3413
▁saga	-10.3417
age	-10.3426
▁70	-10.3426
messe	-10.3428
▁win	-10.3432
ndra	-10.3433
este	-10.3436
▁psicologi	-10.3437
mes	-10.3439
▁perso	-10.3439
▁rendere	-10.3444
live	-10.3445
emisfero	-10.3448
▁svizzera	-10.3448
▁documenti	-10.3448
▁ipotizza	-10.3448
▁dolce	-10.3449
▁kan	-10.3449
▁svolse	-10.345
▁confini	-10.345
▁merito	-10.345
▁1965	-10.345
lina	-10.3451
▁tappa	-10.3455
fran	-10.3455
rini	-10.3456
▁marcia	-10.3458
gol	-10.3461
▁nobile	-10.3463
▁jim	-10.3467
▁mosca	-10.3469
gal	-10.3471
▁metropolitana	-10.3478
▁esser	-10.3483
▁registr	-10.3489
né	-10.349
▁file	-10.3494
▁metodo	-10.35
anzi	-10.35
ble	-10.3507
▁originario	-10.3508
▁alleati	-10.3511
▁sam	-10.3522
▁piace	-10.3537
▁ved	-10.3542
▁temi	-10.3544
▁custodi	-10.3548
▁pensiero	-10.3548
▁trasferisc	-10.3548
▁palatinato	-10.3548
▁trovò	-10.3548
▁previsto	-10.3548
▁medioevo	-10.3548
▁pesante	-10.3549
▁precedenza	-10.355
▁disegno	-10.355
▁contesto	-10.355
▁sì	-10.355
▁passione	-10.3553
▁rapidamente	-10.3553
▁gesto	-10.3556
▁fondi	-10.3557
▁voleva	-10.3559
ord	-10.3559
▁copia	-10.3559
▁pezzo	-10.3561
nar	-10.3564
33	-10.3565
▁cra	-10.3566
31	-10.3568
▁rub	-10.3573
ben	-10.3573
▁neri	-10.3578
▁usare	-10.358
▁artistico	-10.3584
▁dovrebbe	-10.3585
▁marchio	-10.3585
▁xvii	-10.3588
ib	-10.3591
ip	-10.3598
▁economia	-10.36
▁usata	-10.36
▁var	-10.3605
nghi	-10.3611
▁solito	-10.3615
▁braccia	-10.3616
ston	-10.3618
▁olio	-10.3618
▁caratterizzata	-10.3623
▁modi	-10.3627
intervento	-10.3629
▁puntata	-10.363
oglio	-10.3631
allora	-10.3634
▁esclusivamente	-10.3649
▁medaglia	-10.3649
▁vulcan	-10.3649
▁intitolata	-10.365
▁inserito	-10.365
▁laterali	-10.365
▁posizioni	-10.365
▁vene	-10.3651
▁procura	-10.3654
▁bari	-10.3655
▁sk	-10.3657
▁classico	-10.3664
vente	-10.3665
▁fedeli	-10.3666
▁scott	-10.3668
▁messina	-10.3669
▁firmato	-10.3679
esordio	-10.3685
▁raggi	-10.3686
▁archi	-10.3687
▁dando	-10.3689
▁progetta	-10.3708
ngel	-10.3718
▁registrato	-10.3718
american	-10.372
▁ove	-10.372
▁segnò	-10.3722
lancia	-10.3732
▁bus	-10.3732
▁pensare	-10.3733
▁big	-10.3736
raflo	-10.3738
▁azioni	-10.3739
▁xiii	-10.3742
▁riuscirono	-10.3751
▁vegeta	-10.3752
▁navata	-10.3752
▁foresta	-10.3752
▁rischio	-10.3752
▁potuto	-10.3753
▁disegna	-10.3753
▁2022	-10.3754
▁fiumi	-10.3755
▁mm	-10.3757
▁pressione	-10.3759
▁michel	-10.3759
▁circolo	-10.376
▁pieve	-10.3761
▁russa	-10.3767
▁sogno	-10.3772
sal	-10.3776
▁segretario	-10.3778
▁nino	-10.3784
▁elimina	-10.3788
zon	-10.3794
cesso	-10.3796
▁basato	-10.3798
▁game	-10.3801
▁indicare	-10.3802
▁pian	-10.3813
▁xv	-10.3814
▁stazioni	-10.3836
▁gravi	-10.3837
▁gil	-10.385
▁eliminato	-10.3853
▁profondità	-10.3855
▁specifica	-10.3855
▁risposta	-10.3855
▁classifiche	-10.3855
avatar	-10.3856
▁annunciato	-10.3856
▁diametro	-10.3857
▁boston	-10.3858
uni	-10.3863
▁eroi	-10.3869
▁dare	-10.3872
▁avversari	-10.3873
espansione	-10.3876
▁ricca	-10.388
▁love	-10.3881
▁bruno	-10.3883
▁(3	-10.3885
▁metalli	-10.3887
▁trasformazione	-10.3889
▁partenza	-10.3894
ky	-10.3895
esso	-10.3901
▁articola	-10.3905
cess	-10.391
▁arresta	-10.3911
nf	-10.3928
▁frati	-10.3928
▁marc	-10.3942
▁medici	-10.3953
▁ramo	-10.3957
▁chiusura	-10.3959
▁modifiche	-10.3959
▁riconoscimento	-10.3959
▁seeckt	-10.3959
▁statunitensi	-10.3959
▁sostegno	-10.3959
▁comitato	-10.3959
▁salerno	-10.3959
▁denominata	-10.3959
orchestra	-10.3959
▁catena	-10.396
▁giudica	-10.396
dicò	-10.396
▁cara	-10.3961
▁scende	-10.3961
▁presidenza	-10.3962
▁ripara	-10.3973
▁ple	-10.3979
▁simca	-10.3997
=	-10.4002
-4	-10.4009
▁culturali	-10.4009
fort	-10.4026
▁mina	-10.4032
ingegner	-10.4035
▁scritti	-10.4036
audi	-10.4041
▁assu	-10.4044
▁voler	-10.4046
▁cercare	-10.4053
versione	-10.4054
▁definitiva	-10.4055
▁pubblicò	-10.4064
▁ottenendo	-10.4064
▁decreto	-10.4064
▁domenica	-10.4064
▁spicca	-10.4064
esposizione	-10.4064
▁avvenuto	-10.4065
ngu	-10.4067
▁vicenda	-10.4068
▁governa	-10.407
sar	-10.407
low	-10.4071
▁finisce	-10.4074
mari	-10.4076
▁quegli	-10.4078
▁(15	-10.4078
▁tomba	-10.4079
▁debutta	-10.4082
▁distrutto	-10.4082
▁ros	-10.4086
▁bacia	-10.4087
▁spada	-10.4087
▁air	-10.4092
▁indipendente	-10.4095
▁avvert	-10.4095
▁formare	-10.4097
▁35	-10.4099
town	-10.4101
-18	-10.4103
aldi	-10.4104
▁mur	-10.411
▁portata	-10.4113
▁arrivare	-10.4115
▁disput	-10.4117
▁fede	-10.4117
▁uscita	-10.4124
▁division	-10.4137
”,	-10.4139
▁nor	-10.4155
architettura	-10.4156
▁sponsor	-10.417
▁prevedeva	-10.417
▁associa	-10.417
▁rinuncia	-10.417
▁segreto	-10.417
▁semifinale	-10.417
▁risorse	-10.417
▁aziende	-10.417
▁josé	-10.417
▁ambienti	-10.417
▁scienze	-10.417
▁solitamente	-10.4171
▁profilo	-10.4171
▁quadri	-10.4171
▁attacchi	-10.4171
▁malvagi	-10.4171
viene	-10.4172
oceano	-10.4174
▁claudio	-10.4176
▁rose	-10.4178
hor	-10.4182
dici	-10.4183
▁mol	-10.4187
▁marine	-10.4191
▁medicina	-10.4192
cul	-10.4196
liber	-10.4208
▁patria	-10.4212
quad	-10.4218
vari	-10.4241
▁evento	-10.4247
oggetto	-10.4253
▁corsa	-10.4254
▁psico	-10.4255
▁restauro	-10.4255
▁onde	-10.4259
▁voti	-10.4263
inverno	-10.4264
num	-10.4275
▁sconfisse	-10.4278
▁commissario	-10.4278
▁professional	-10.4278
▁documento	-10.4278
▁bretagna	-10.4278
▁aspetti	-10.4278
▁carcere	-10.4278
▁1959	-10.428
▁popolazioni	-10.4283
liche	-10.4285
▁valuta	-10.4286
▁juan	-10.4296
▁lucia	-10.4297
▁rinnov	-10.4297
▁gh	-10.4301
▁yu	-10.4302
▁solista	-10.4309
▁dovuta	-10.4314
▁seguire	-10.4314
▁pena	-10.4319
▁white	-10.4323
▁trasporta	-10.4324
▁urbani	-10.4326
▁garibaldi	-10.4328
▁arrestato	-10.4328
▁temp	-10.4329
▁fattori	-10.4336
attacco	-10.4336
▁mito	-10.4339
án	-10.4339
▁guidato	-10.4342
plan	-10.4348
angolo	-10.4368
madonna	-10.4375
asia	-10.4379
▁angelo	-10.4383
▁cimitero	-10.4387
▁richiede	-10.4387
▁vescovi	-10.4387
▁costringe	-10.4387
▁lontano	-10.4387
▁ceduto	-10.4387
▁trasporti	-10.4387
▁fondatore	-10.4387
▁scr	-10.4388
▁rivel	-10.4388
▁esterna	-10.4389
▁muore	-10.4389
▁moderni	-10.4394
▁tiro	-10.4395
▁devils	-10.4398
gos	-10.44
▁collegamento	-10.4405
▁annu	-10.4411
lini	-10.4412
ordina	-10.4414
▁more	-10.4418
▁cala	-10.4421
serv	-10.4427
▁recupera	-10.4432
▁attribu	-10.4435
▁avvia	-10.4439
omicidio	-10.4455
gger	-10.4459
nis	-10.4463
zer	-10.4466
tello	-10.4469
▁corrisponde	-10.4473
▁colpito	-10.4484
▁iniziale	-10.4485
seguiti	-10.4485
▁cambiare	-10.449
▁chitarra	-10.4496
▁elizabeth	-10.4496
▁jersey	-10.4496
▁ristorante	-10.4496
▁semplici	-10.4496
▁venezuela	-10.4496
▁compresa	-10.4497
▁diffuso	-10.4497
ottocento	-10.4497
▁critiche	-10.4498
▁metodi	-10.4498
intervista	-10.4499
tis	-10.45
▁perde	-10.45
▁vinta	-10.45
pra	-10.4502
greg	-10.4505
▁collegamenti	-10.4507
▁cosiddetto	-10.4508
▁bit	-10.4511
assai	-10.4517
rude	-10.4518
▁svolta	-10.4522
▁esercito	-10.4525
▁gente	-10.4554
▁char	-10.4558
▁calo	-10.4566
▁fili	-10.4568
▁necessari	-10.4576
▁arrivando	-10.458
▁presi	-10.4581
fr	-10.459
ospedale	-10.4598
tella	-10.4601
▁possibili	-10.4604
▁biblioteca	-10.4608
▁calendario	-10.4608
▁differenzia	-10.4608
▁teatrale	-10.4608
▁tradizionali	-10.4608
▁violenza	-10.4608
▁ambientat	-10.4608
▁visconti	-10.4608
▁melinda	-10.4608
▁grosso	-10.461
▁diminu	-10.461
▁1919	-10.461
▁felice	-10.4611
▁confina	-10.4615
nstein	-10.4621
▁duo	-10.463
▁cover	-10.4637
▁signori	-10.4645
▁queen	-10.4648
fel	-10.4649
▁cena	-10.4666
relli	-10.4671
levata	-10.4673
▁seguendo	-10.4691
cker	-10.4693
alba	-10.4702
▁arrivato	-10.4706
▁getta	-10.4707
▁sesso	-10.4709
▁1957	-10.472
▁inglobat	-10.472
▁programmi	-10.472
▁domenico	-10.472
▁movimenti	-10.472
▁traghetto	-10.472
▁impianti	-10.472
▁ripresa	-10.472
▁lingue	-10.472
▁dvd	-10.472
▁contrasto	-10.4721
▁cima	-10.4721
▁sensi	-10.4724
▁ricava	-10.4728
▁vende	-10.4728
▁finanziari	-10.4728
offerta	-10.4729
▁viaggia	-10.4729
▁corsi	-10.4731
▁riva	-10.4745
▁elfi	-10.4746
cula	-10.4747
tipico	-10.4754
▁divide	-10.4769
india	-10.4776
▁ran	-10.4779
▁spera	-10.4782
▁assist	-10.4788
▁32	-10.4789
▁caro	-10.479
▁disputato	-10.4792
▁originali	-10.4792
▁guar	-10.4795
▁studiare	-10.4796
▁aria	-10.4798
atmosfera	-10.4799
▁utilizzate	-10.4799
▁cerchi	-10.4804
▁web	-10.4806
▁approva	-10.4807
▁catturato	-10.4824
istruzione	-10.4825
▁resiste	-10.4831
▁affinché	-10.4834
▁congresso	-10.4834
▁trasferimento	-10.4834
▁trasferito	-10.4834
▁spagnoli	-10.4834
▁televisione	-10.4834
infanzia	-10.4834
▁dipartimento	-10.4834
▁tiene	-10.4835
field	-10.4837
▁conservata	-10.4837
▁corrispondenza	-10.4838
▁subì	-10.4842
ks	-10.4845
▁diviso	-10.4846
▁architettura	-10.4849
▁cicli	-10.4853
▁pallacanestro	-10.4854
▁hall	-10.4858
▁ambiente	-10.4867
▁gro	-10.4867
▁decenni	-10.4873
mal	-10.4875
▁artistica	-10.4882
▁soggetti	-10.4884
▁maggiormente	-10.4891
▁tetto	-10.4903
▁professor	-10.4924
▁pone	-10.4927
▁nera	-10.4932
▁divenuto	-10.4934
▁80	-10.4937
▁joe	-10.4937
▁evoluzione	-10.4937
analisi	-10.4943
ipotesi	-10.4943
▁ammira	-10.4943
gruppo	-10.4943
▁disponibili	-10.4944
▁alfonso	-10.4948
▁eredivisie	-10.4948
▁imperiale	-10.4948
▁nasconde	-10.4948
▁salvezza	-10.4949
▁calciatore	-10.4949
▁produce	-10.4949
▁ritratto	-10.4949
impiego	-10.4949
▁ritmo	-10.4949
▁appoggia	-10.4949
▁padova	-10.495
▁ferito	-10.495
▁lunghi	-10.495
▁denaro	-10.495
▁esterni	-10.495
▁sudafrica	-10.4952
▁giulio	-10.4952
▁vicende	-10.4952
▁governatore	-10.4953
ges	-10.4955
▁essenzial	-10.4957
▁riguardant	-10.4958
▁chiuso	-10.496
▁rota	-10.4965
▁medievale	-10.4968
borg	-10.4968
▁intervento	-10.4971
▁perdere	-10.4973
▁registrazione	-10.4974
▁ulterior	-10.4975
▁usando	-10.4979
▁diego	-10.4986
▁extra	-10.4989
▁barone	-10.4989
▁domini	-10.4991
durre	-10.4992
▁disputata	-10.4994
▁gironi	-10.5
▁2007.	-10.5004
▁mori	-10.5012
-17	-10.5015
▁rendendo	-10.502
nate	-10.5024
▁organizzata	-10.504
▁incidente	-10.5057
▁ambito	-10.5058
▁testimonia	-10.5059
grad	-10.5064
▁cerimonia	-10.5065
▁costellazione	-10.5065
▁napoleone	-10.5065
▁savoia	-10.5065
▁fondò	-10.5065
▁blocca	-10.5065
▁monaci	-10.5065
▁sindaco	-10.5065
▁talbot	-10.5066
ish	-10.5066
▁posa	-10.5068
▁assisi	-10.5068
▁sottolinea	-10.5069
▁capelli	-10.507
▁franchi	-10.5071
▁allunga	-10.5071
▁ordin	-10.5071
▁benché	-10.5072
arcivescovo	-10.5077
▁utili	-10.5079
grand	-10.5084
▁qualificazione	-10.5085
▁france	-10.5085
▁fortezza	-10.5085
▁laboratorio	-10.5086
▁giornali	-10.5086
▁praticamente	-10.5095
kur	-10.5098
▁realizzate	-10.5102
▁priva	-10.5106
▁morire	-10.5114
▁conseguente	-10.5116
▁preside	-10.5117
▁2004,	-10.512
wer	-10.5125
▁ampia	-10.513
▁dog	-10.5132
▁award	-10.5141
▁pun	-10.5162
ball	-10.5174
▁cavalieri	-10.5182
▁sovietica	-10.5182
▁articoli	-10.5183
▁denominato	-10.5183
▁sanremo	-10.5184
▁tribunale	-10.5184
enzo	-10.5184
▁carrozzeria	-10.5185
▁1955	-10.5185
▁tess	-10.5185
▁ricorre	-10.5186
▁ricopert	-10.5186
▁collegio	-10.5186
▁speranza	-10.5186
▁produrre	-10.5187
▁phil	-10.5188
▁abitabile	-10.5188
▁installa	-10.5189
▁coda	-10.5195
▁chiedere	-10.5204
▁scal	-10.5205
▁suolo	-10.5208
▁rimanere	-10.5209
▁west	-10.5211
▁visibili	-10.5212
due	-10.5212
ctor	-10.5212
▁cari	-10.5213
▁park	-10.5225
▁nan	-10.5232
▁sec	-10.5233
▁ya	-10.5245
▁destro	-10.5256
terapia	-10.5261
boni	-10.5274
▁pista	-10.5281
▁aumento	-10.5281
way	-10.5289
▁cass	-10.5289
▁ph	-10.529
temp	-10.5295
king	-10.5297
▁processi	-10.5298
▁gabriel	-10.5301
▁kazuya	-10.5301
▁mediterraneo	-10.5301
▁racconto	-10.5301
▁campanile	-10.5301
▁preghiera	-10.5301
▁dichiarò	-10.5302
bagheera	-10.5302
▁famosi	-10.5302
▁attenzione	-10.5302
▁limite	-10.5302
▁lancio	-10.5302
esterno	-10.5302
▁lazio	-10.5305
skij	-10.5306
▁cercando	-10.5306
▁inviato	-10.5307
▁schiera	-10.5307
▁associazioni	-10.5309
▁componente	-10.531
▁avrà	-10.5313
▁distruzione	-10.5319
▁sconfigge	-10.532
euro	-10.5322
▁tocca	-10.5323
▁legata	-10.5325
▁americana	-10.5327
prima	-10.533
▁jin	-10.5333
win	-10.5338
▁appe	-10.5341
▁matra	-10.5342
▁scia	-10.5342
▁immagina	-10.5344
nello	-10.5345
▁venire	-10.5364
esimo	-10.5364
▁favor	-10.5368
back	-10.5375
impatto	-10.5377
▁tesi	-10.5378
▁cibo	-10.538
▁raffigurant	-10.5385
▁gode	-10.5394
occhio	-10.5396
▁promosso	-10.5398
▁interne	-10.54
▁manga	-10.5408
▁solare	-10.5411
▁prendendo	-10.5414
cher	-10.542
▁portogallo	-10.5422
▁assoluto	-10.5422
▁gigante	-10.5422
attenzione	-10.5422
▁ragioni	-10.5422
▁capace	-10.5422
figura	-10.5423
▁1947	-10.5424
▁1940	-10.5425
▁critico	-10.5426
▁150	-10.5427
▁denti	-10.5427
sdorf	-10.5432
▁stretto	-10.5433
▁esempi	-10.547
▁general	-10.5472
▁danese	-10.5485
▁ferr	-10.5486
▁questione	-10.5486
▁iron	-10.5489
▁rami	-10.5491
-6	-10.55
▁formazioni	-10.5506
▁abbandonato	-10.5516
storie	-10.5518
ington	-10.5526
▁automobili	-10.5543
▁chitarrista	-10.5544
▁microsoft	-10.5544
opposizione	-10.5544
▁callisto	-10.5544
▁probabile	-10.5544
▁vetture	-10.5544
▁diffuse	-10.5544
▁urbano	-10.5544
▁straordinari	-10.5544
▁sinistro	-10.5544
▁1941	-10.5545
▁chiuse	-10.5545
▁completo	-10.5546
▁gregorio	-10.5546
▁1927	-10.5546
▁dentro	-10.5547
▁voluto	-10.5547
▁potenti	-10.5548
▁formata	-10.5553
▁solleva	-10.5554
▁internet	-10.5557
▁bomba	-10.5559
▁voci	-10.557
▁armata	-10.5572
▁prezzo	-10.5573
▁thi	-10.5573
▁conservazione	-10.5576
tum	-10.5578
▁sposato	-10.5582
▁aspetta	-10.5583
▁danza	-10.5585
play	-10.5586
▁attori	-10.5591
▁amicizia	-10.5601
▁norma	-10.5607
esima	-10.5608
▁barba	-10.5609
▁giovanili	-10.561
▁licenzia	-10.5619
▁merci	-10.564
intento	-10.5652
▁passando	-10.5653
tini	-10.5657
▁iva	-10.5657
▁arco	-10.5667
▁ascolta	-10.5667
▁museum	-10.5667
▁sicuramente	-10.5667
▁bernard	-10.5668
▁settimo	-10.5668
▁tappe	-10.5668
▁rimasta	-10.5668
▁procede	-10.5668
▁capitoli	-10.5668
▁volumi	-10.5669
▁1936	-10.5669
▁spettatori	-10.567
▁relativi	-10.5672
▁1920	-10.5672
▁coraggio	-10.5672
▁peggior	-10.5672
▁martello	-10.5673
▁xi	-10.5678
▁folla	-10.5691
▁varietà	-10.5693
▁fasi	-10.5697
▁siena	-10.57
vert	-10.5702
▁segni	-10.5713
▁liberazione	-10.5716
▁venera	-10.572
▁colpa	-10.5723
▁dorm	-10.5725
▁distribuito	-10.5737
▁tratte	-10.5744
▁ricordare	-10.5746
▁migliora	-10.5749
▁piante	-10.5757
scritte	-10.5774
equipaggio	-10.5777
▁orbita	-10.5777
media	-10.5779
800	-10.578
uscì	-10.5782
▁/	-10.5785
sky	-10.5786
ucraina	-10.5792
▁confraternita	-10.5792
▁legislativ	-10.5792
▁madrid	-10.5792
▁proclama	-10.5792
▁championship	-10.5792
▁monumento	-10.5792
▁confessa	-10.5793
▁prospettiva	-10.5793
▁scorta	-10.5793
▁temperatura	-10.5794
▁condotto	-10.5794
▁chiusa	-10.5796
▁giovanile	-10.5797
▁34	-10.5798
camp	-10.5798
▁altrettant	-10.5799
▁venga	-10.58
▁amiche	-10.5801
▁vanta	-10.5802
▁nozze	-10.5803
▁ulteriormente	-10.5804
▁giura	-10.5805
▁cristiana	-10.5808
▁operativo	-10.5809
▁tardo	-10.5813
▁brevi	-10.5814
▁collezione	-10.5816
▁vela	-10.5824
▁ricev	-10.5825
applicazione	-10.5827
▁0,	-10.5827
▁mike	-10.5833
olanda	-10.5837
▁cava	-10.5845
▁permett	-10.5848
▁difende	-10.5856
gramma	-10.5858
▁necessaria	-10.5858
▁verona	-10.586
▁sconfiggere	-10.586
▁orienta	-10.5863
▁wei	-10.5878
ska	-10.5878
new	-10.5885
▁rappresentano	-10.5886
▁legale	-10.5888
nice	-10.5899
ding	-10.5901
▁veste	-10.5901
▁ballo	-10.5905
▁mettendo	-10.5907
▁accoglie	-10.5915
▁aggiornat	-10.5918
▁scientifica	-10.5919
▁peppino	-10.5919
▁chicago	-10.5919
▁intrapres	-10.5919
▁vittima	-10.5919
▁teorie	-10.5919
▁vivian	-10.592
▁rovina	-10.592
▁victoria	-10.5921
▁dur	-10.5921
▁colonnello	-10.5922
▁interventi	-10.5922
yama	-10.5924
inghilterra	-10.5925
circa	-10.5927
▁distinti	-10.5927
▁sbarc	-10.593
▁patrimonio	-10.5936
elenco	-10.5937
▁luc	-10.5937
▁generazione	-10.594
islanda	-10.594
▁osservazioni	-10.5943
contrarono	-10.5946
▁privati	-10.5953
▁ciascuna	-10.5963
▁amica	-10.5966
▁carico	-10.5969
stone	-10.5985
▁cau	-10.5985
▁limitata	-10.599
▁farlo	-10.5993
▁grand	-10.5994
hn	-10.6016
pass	-10.6032
▁segreta	-10.6043
athletic	-10.6047
▁1934	-10.6047
▁1956	-10.6047
▁basket	-10.6047
▁cavaliere	-10.6047
▁eliteserien	-10.6047
▁realizzò	-10.6047
▁riuscito	-10.6047
▁sindrome	-10.6047
▁anticipa	-10.6047
▁avalanche	-10.6047
agricoltura	-10.6047
▁traduzione	-10.6047
fjord	-10.6047
▁regole	-10.6048
▁1938	-10.6049
▁ricordi	-10.605
▁manifesta	-10.6052
▁anime	-10.6053
▁dopoguerra	-10.6054
villa	-10.6054
▁ruoli	-10.6055
pari	-10.6055
▁ospedale	-10.6058
front	-10.6058
▁artista	-10.6059
▁billy	-10.606
ecce	-10.6074
blo	-10.6076
▁attivi	-10.608
▁affonda	-10.6085
▁potrebbero	-10.6094
posizion	-10.6098
▁supporta	-10.61
▁attribuit	-10.61
▁legame	-10.6118
ign	-10.6127
▁pareti	-10.6132
▁classici	-10.6133
▁spara	-10.6134
▁stri	-10.614
▁segnale	-10.6142
▁beato	-10.6154
▁cab	-10.6155
▁repart	-10.6159
▁masse	-10.6166
▁cittadino	-10.6177
▁prigionieri	-10.6177
▁riconosciuto	-10.6177
appartamento	-10.6177
▁joseph	-10.6177
▁mishima	-10.6177
▁novecento	-10.6177
▁affari	-10.6177
avvocato	-10.6177
▁muove	-10.6178
ristrutturazione	-10.6178
▁navale	-10.6178
▁secondi	-10.6178
▁montagne	-10.6179
▁tentò	-10.618
▁grazia	-10.6185
▁tredici	-10.6186
▁guido	-10.6191
▁kra	-10.6195
informazione	-10.6195
▁canali	-10.6198
▁selva	-10.6198
▁abbandon	-10.6199
▁larga	-10.6204
▁gale	-10.6207
▁liberale	-10.6209
gram	-10.6214
▁occhio	-10.6219
lung	-10.6222
eredità	-10.6223
▁ciascuno	-10.6226
unt	-10.6227
▁filosofi	-10.6241
essere	-10.6257
▁meist	-10.6261
▁comprendeva	-10.6266
dar	-10.627
▁classificato	-10.6278
ssime	-10.63
comun	-10.6308
▁dottrina	-10.6309
▁guerriero	-10.6309
▁destinata	-10.6309
▁cammino	-10.6309
▁concorso	-10.6309
▁litiga	-10.6309
▁cesare	-10.631
▁miracolo	-10.631
▁increment	-10.6311
▁tenuta	-10.6311
▁conclusione	-10.6311
▁percorre	-10.6311
▁wwe	-10.6315
▁atleti	-10.6318
▁mantenne	-10.6319
▁presentata	-10.6323
cello	-10.6323
espressione	-10.6323
▁fred	-10.6329
▁idee	-10.633
▁tenne	-10.6332
▁salvo	-10.6338
▁terzi	-10.6339
▁sorgente	-10.6339
▁indicato	-10.634
▁sara	-10.6341
zen	-10.6341
▁gor	-10.6348
▁ritira	-10.6349
bran	-10.6351
▁fifa	-10.6351
avventura	-10.6357
estremità	-10.6357
▁saggi	-10.636
▁proprietari	-10.6373
amante	-10.6377
▁prosegui	-10.6379
▁articolo	-10.6381
para	-10.6389
▁pir	-10.6392
▁decennio	-10.6396
▁comunemente	-10.6403
▁é	-10.6407
▁assassin	-10.6411
▁ham	-10.6425
▁bad	-10.6428
▁lunghe	-10.6438
▁festeggia	-10.6439
▁confermato	-10.6442
occidente	-10.6442
▁conference	-10.6442
▁conosciuti	-10.6442
▁costituiscono	-10.6442
▁hercules	-10.6442
▁nascosto	-10.6442
▁scrittura	-10.6442
▁copertura	-10.6442
▁scultore	-10.6442
▁continente	-10.6442
▁mercenari	-10.6442
▁successore	-10.6442
▁differente	-10.6442
▁trasmesso	-10.6442
▁poesia	-10.6442
educazione	-10.6442
▁giusto	-10.6443
▁vigore	-10.6443
▁destino	-10.6444
▁scatena	-10.6444
▁1949	-10.6444
▁beach	-10.6446
▁1930	-10.6446
▁marvel	-10.6446
▁muir	-10.6448
▁proiett	-10.645
trasmessa	-10.6451
▁interrott	-10.6453
▁selezione	-10.6454
evoluzione	-10.6455
allenatore	-10.6456
interesse	-10.6456
▁citato	-10.6463
▁statura	-10.6469
▁considerazione	-10.6473
▁stabile	-10.6479
med	-10.648
▁popola	-10.6482
▁sostenuto	-10.6486
▁(4	-10.649
▁blues	-10.6491
▁bet	-10.6493
▁capire	-10.6497
▁eccezione	-10.6511
▁brian	-10.6511
▁riconosce	-10.6512
parte	-10.6514
tag	-10.6515
▁tenere	-10.6515
▁adam	-10.6516
▁retrocessione	-10.652
▁33	-10.6523
▁contemporanea	-10.6529
▁colli	-10.6532
▁studia	-10.6536
▁finita	-10.6543
▁albero	-10.6547
▁sel	-10.6556
▁suonare	-10.6558
▁convincere	-10.656
▁lavorato	-10.6576
▁evidenzia	-10.6577
iscrizione	-10.6577
▁pubbliche	-10.6577
▁québec	-10.6577
▁sostiene	-10.6577
▁specifico	-10.6577
▁wrestling	-10.6577
▁jaguar	-10.6577
▁hilary	-10.6577
▁vendite	-10.6577
▁friuli	-10.6577
▁dipinta	-10.6577
▁conobbe	-10.6578
▁conseguenze	-10.6578
▁tessuto	-10.6578
▁estratto	-10.6578
▁musicisti	-10.6578
▁convinto	-10.6578
▁stanley	-10.6579
▁condotta	-10.6579
▁barca	-10.6579
▁1951	-10.6579
rebbero	-10.658
▁street	-10.658
▁liceo	-10.658
▁attesta	-10.6581
▁fornisce	-10.6584
▁popolari	-10.659
▁tipica	-10.659
effetto	-10.6592
▁quanti	-10.6592
▁finire	-10.6594
▁contessa	-10.6597
▁distribuit	-10.6601
▁fotografi	-10.6601
▁collina	-10.6607
▁north	-10.6608
▁pubblicati	-10.6609
▁nutr	-10.6609
▁set	-10.6611
▁carrie	-10.6611
▁versi	-10.6613
▁triangol	-10.6613
▁conoscere	-10.6617
▁carro	-10.6618
▁rappresentanti	-10.6629
▁mille	-10.663
▁blue	-10.6635
▁palla	-10.6635
▁seguì	-10.6638
pag	-10.664
▁arrivano	-10.6642
▁open	-10.6643
ocrati	-10.6643
mmo	-10.665
▁circo	-10.6652
▁abitato	-10.6652
▁proprietario	-10.6654
▁scappa	-10.6655
▁recuperare	-10.6657
▁portarono	-10.6661
▁demoni	-10.6663
▁nin	-10.6666
▁fior	-10.6668
▁anton	-10.6669
ndorf	-10.6677
cchio	-10.668
▁ford	-10.6687
▁delita	-10.6689
▁aggiunta	-10.669
hon	-10.6692
agostino	-10.6698
row	-10.6699
ware	-10.6705
cciatorpediniere	-10.6714
▁apparteneva	-10.6714
▁canadese	-10.6714
▁circuito	-10.6714
▁dimensione	-10.6714
▁guerrieri	-10.6714
▁parlamentare	-10.6714
▁promuove	-10.6714
▁prossimità	-10.6714
▁sopravvive	-10.6714
▁spirituale	-10.6714
▁zelanda	-10.6714
▁teorema	-10.6714
▁malgrado	-10.6714
▁harrison	-10.6714
▁divorzi	-10.6714
▁elevato	-10.6714
▁scambia	-10.6715
▁debole	-10.6715
▁industriali	-10.6715
ambasciat	-10.6715
▁1952	-10.6716
▁1953	-10.6716
bot	-10.6718
▁interessi	-10.6721
▁morale	-10.6729
orbita	-10.6729
utilizz	-10.6731
▁budd	-10.6736
▁habitat	-10.6737
▁portano	-10.6738
natura	-10.6741
▁link	-10.6745
▁scarsa	-10.6751
▁centrali	-10.6754
▁coro	-10.6762
super	-10.6771
ndoli	-10.6772
▁affidata	-10.6776
▁inaugurata	-10.6783
▁difendere	-10.6784
▁entrato	-10.6794
▁300	-10.6805
▁by	-10.6807
▁considerati	-10.6808
▁continuare	-10.6812
▁potenzia	-10.6821
▁trattava	-10.6827
stadt	-10.683
▁farà	-10.6835
▁000	-10.6844
▁rispettiv	-10.6852
▁decor	-10.6853
▁sconfitte	-10.6853
▁thomas	-10.6853
introduzione	-10.6853
▁arrabbia	-10.6853
▁cortés	-10.6853
▁regionali	-10.6853
▁cambiò	-10.6853
▁dapprima	-10.6853
▁menziona	-10.6853
▁taranto	-10.6853
▁lavorò	-10.6853
▁attuali	-10.6853
▁tavolo	-10.6853
▁illustra	-10.6853
▁dimissioni	-10.6854
▁recò	-10.6854
▁monete	-10.6855
▁gusto	-10.6855
▁rivalità	-10.6856
▁cavalli	-10.6856
▁indaga	-10.6857
▁sanitari	-10.6857
▁armon	-10.6865
▁corrispondente	-10.6867
▁protetto	-10.6867
▁vicini	-10.6868
▁golfo	-10.6868
influenza	-10.6871
omonimo	-10.6871
▁americani	-10.6872
rici	-10.6875
▁simone	-10.6878
▁sovrani	-10.6884
▁cassa	-10.6885
▁permettere	-10.6889
▁pose	-10.6889
▁esteri	-10.689
▁ulteriore	-10.6902
▁egizi	-10.6903
goni	-10.6903
▁beat	-10.6912
▁permise	-10.6912
▁enorme	-10.6919
▁sy	-10.692
mara	-10.6921
▁svolto	-10.6925
▁emerge	-10.6927
▁divise	-10.6934
▁fiat	-10.6941
▁dubbio	-10.6942
▁sottopost	-10.6942
nau	-10.6947
▁400	-10.695
forte	-10.6951
▁creati	-10.6953
▁divent	-10.6955
incidente	-10.6956
▁pierre	-10.6958
▁compagnie	-10.6968
▁costituir	-10.6977
scend	-10.6986
espressi	-10.6993
▁indipendenti	-10.6994
▁inferiori	-10.6994
▁luminosità	-10.6994
▁parzialmente	-10.6994
▁scientifico	-10.6994
▁calabria	-10.6994
▁civiltà	-10.6994
▁miliardi	-10.6994
▁zanicchi	-10.6994
▁mantenendo	-10.6994
▁province	-10.6994
▁amazzoni	-10.6994
▁cantautore	-10.6994
▁improvvisamente	-10.6994
▁cugino	-10.6994
▁remix	-10.6994
▁colorado	-10.6994
▁meyer	-10.6994
▁ampio	-10.6994
▁notevoli	-10.6996
▁totalmente	-10.6996
▁sostituzione	-10.6996
ammiraglio	-10.6997
▁1939	-10.6997
▁tentativi	-10.6997
▁definisce	-10.6999
▁dotata	-10.7
esplosione	-10.7
▁analisi	-10.7001
▁linguaggio	-10.7002
▁tanti	-10.7003
▁mangia	-10.7005
ungheria	-10.7006
▁martino	-10.7007
▁prestazioni	-10.7008
▁concede	-10.7009
▁berg	-10.7013
insieme	-10.7015
aereo	-10.7016
meno	-10.7018
▁centinaia	-10.7019
▁futura	-10.7019
▁uffici	-10.7024
intensa	-10.703
▁nudo	-10.7038
▁terreni	-10.7042
▁mister	-10.7049
▁attira	-10.7049
▁ellen	-10.7052
▁with	-10.7064
▁signora	-10.7065
▁calcola	-10.7068
▁totali	-10.707
▁perdendo	-10.7076
▁dj	-10.7079
▁chiamati	-10.7093
▁identità	-10.7093
▁inaugurat	-10.7093
5%	-10.7095
scar	-10.7096
▁realizzati	-10.7103
▁argo	-10.7108
▁kar	-10.7109
▁accusato	-10.7116
▁plas	-10.7119
scritto	-10.7126
_6	-10.7134
▁antartica	-10.7137
▁episcopale	-10.7137
▁fenomeni	-10.7137
▁privilegi	-10.7137
▁recupero	-10.7137
▁scomparsa	-10.7137
▁veikkausliiga	-10.7137
▁wiener	-10.7137
▁ashley	-10.7137
▁abbandonare	-10.7137
▁gordon	-10.7137
▁1929	-10.7139
▁uccise	-10.7139
▁migliaia	-10.7139
▁utile	-10.714
▁popolarità	-10.7141
▁mattina	-10.7141
appoggio	-10.7142
▁messaggio	-10.7144
▁agenti	-10.7144
▁incide	-10.7145
▁dimentica	-10.7145
▁ricostruzione	-10.7147
air	-10.7148
41	-10.7151
▁organizzazioni	-10.7156
▁soffr	-10.7156
▁desiderio	-10.7159
▁giudizio	-10.716
▁potenziale	-10.7171
▁accompagnato	-10.7176
▁austrian	-10.7188
▁volle	-10.7196
bbe	-10.7203
ficazione	-10.7208
▁tag	-10.721
agente	-10.7212
▁impero	-10.7213
▁muro	-10.7216
▁acquisit	-10.722
té	-10.7228
▁sorte	-10.7229
▁volontari	-10.723
▁messe	-10.7231
▁dono	-10.7234
▁tito	-10.7236
kov	-10.7246
▁maschio	-10.725
▁matrice	-10.7253
▁poeti	-10.7255
▁luci	-10.7258
▁como	-10.7263
▁ricostru	-10.727
impegno	-10.7281
▁disciplina	-10.7282
▁esperienze	-10.7282
▁precipita	-10.7282
▁rodolfo	-10.7282
▁benedetti	-10.7282
▁apparve	-10.7282
▁destinato	-10.7282
▁trofeo	-10.7282
affresco	-10.7282
▁vincenzo	-10.7282
▁notizie	-10.7282
▁raggio	-10.7283
▁ministri	-10.7283
▁royal	-10.7283
▁maschera	-10.7284
▁musicista	-10.7284
▁baseball	-10.7285
▁fort	-10.7285
▁scoprono	-10.7286
▁massicci	-10.7288
▁decisamente	-10.7289
▁modella	-10.7289
▁trasferirsi	-10.7291
▁serra	-10.73
▁session	-10.7302
▁get	-10.7302
▁rifugio	-10.7308
venuto	-10.7311
▁preparazione	-10.7311
▁inventa	-10.7312
▁flu	-10.7313
pian	-10.7315
▁telescopio	-10.7315
attrice	-10.7317
▁teologia	-10.7317
▁°	-10.7329
▁marche	-10.7335
▁ospitare	-10.7335
▁proto	-10.7342
▁brand	-10.7342
▁arist	-10.7354
▁catalog	-10.7356
▁1000	-10.7356
cell	-10.7374
▁fugge	-10.7378
aggiunta	-10.7388
▁ugo	-10.7393
nier	-10.7408
▁esclusi	-10.7414
▁veloce	-10.7418
▁cave	-10.7426
▁fiducia	-10.7429
▁incorpora	-10.7429
▁notevolmente	-10.7429
▁nudibranchi	-10.7429
▁qualcuno	-10.7429
▁studente	-10.7429
▁giornale	-10.7429
▁rispetta	-10.7429
▁navigazione	-10.7429
▁wings	-10.7429
▁rinominat	-10.7429
▁rumore	-10.7429
▁cadde	-10.7429
▁nasl	-10.743
▁domanda	-10.743
▁castiglia	-10.743
▁presunt	-10.7431
▁campana	-10.7433
▁candidato	-10.7434
▁spaziale	-10.7434
allestimento	-10.7435
▁musiche	-10.7435
▁giunto	-10.7435
acquisto	-10.7436
▁variabile	-10.7437
▁condusse	-10.7437
▁segnato	-10.7437
attua	-10.7442
▁popoli	-10.7446
▁micro	-10.7447
▁guidati	-10.7452
▁kh	-10.7455
▁amministrat	-10.7456
tendono	-10.7456
▁separazione	-10.7464
▁quaranta	-10.7471
▁kil	-10.7475
▁originaria	-10.7477
▁abilità	-10.7478
▁distruggere	-10.748
▁attore	-10.7485
▁free	-10.7485
legge	-10.7498
▁mosse	-10.7502
▁negozi	-10.7503
▁rap	-10.7514
▁64	-10.7519
▁diventata	-10.7524
▁consiglia	-10.7536
▁figlie	-10.7536
▁four	-10.7547
autonomia	-10.7551
▁organizzazione	-10.7555
▁là	-10.7557
▁vasta	-10.7557
▁sesta	-10.7562
▁interpret	-10.7568
umanità	-10.7572
ensis	-10.7577
▁calangianus	-10.7578
▁cresciuto	-10.7578
▁imprigiona	-10.7578
▁monumentale	-10.7578
▁nucleo	-10.7578
▁sessuale	-10.7578
▁fiorentina	-10.7578
▁scudetto	-10.7578
azzurro	-10.7578
▁charlotte	-10.7578
▁keith	-10.7578
▁diffusa	-10.7578
▁piemonte	-10.7578
▁lettura	-10.7579
▁tutela	-10.7579
▁universale	-10.7579
▁vincitrice	-10.7579
▁1931	-10.7579
partì	-10.758
▁rigore	-10.758
▁attesa	-10.758
▁esploratori	-10.7582
▁1912	-10.7583
▁imprese	-10.7587
▁console	-10.7588
▁scout	-10.7589
▁compone	-10.7589
▁impegn	-10.7602
islam	-10.7604
▁lich	-10.7608
▁gianni	-10.7608
▁pesce	-10.7609
▁western	-10.761
▁ricordato	-10.7612
▁borsa	-10.7614
editore	-10.7615
▁tasso	-10.7626
▁eredit	-10.7626
▁litri	-10.7632
▁castelli	-10.7633
▁corti	-10.7636
▁ispirazione	-10.7643
▁provinciale	-10.7644
▁seguono	-10.7646
▁esplora	-10.7656
▁guidata	-10.7659
arm	-10.7672
▁venere	-10.7673
▁riportato	-10.7677
▁tracciato	-10.768
▁senatore	-10.7695
yes	-10.7698
▁viii	-10.7708
▁viaggi	-10.7715
▁tener	-10.7717
▁federa	-10.7726
▁candid	-10.7728
razzi	-10.7728
▁poste	-10.7729
▁infrastrutture	-10.7729
▁professionista	-10.7729
▁facoltà	-10.7729
▁racconti	-10.7729
▁edward	-10.7729
▁mtv	-10.773
▁terremoto	-10.773
▁ricordo	-10.773
▁brown	-10.773
▁trasmette	-10.773
▁concilio	-10.773
▁fisico	-10.773
▁divenendo	-10.773
▁macchine	-10.773
▁adulti	-10.773
▁amministrativa	-10.7731
▁1926	-10.7731
▁costruite	-10.7732
▁1942	-10.7732
▁ruota	-10.7732
▁attende	-10.7733
▁bay	-10.7735
▁grosse	-10.7736
▁2-0	-10.7741
▁cambiamento	-10.7742
▁160	-10.7743
▁incontrano	-10.7747
avvi	-10.7748
▁nostra	-10.7753
equazione	-10.7761
▁organizzare	-10.7762
▁fox	-10.7769
▁trio	-10.7773
▁influenze	-10.7776
▁adrian	-10.7782
▁scegliere	-10.7789
▁assistente	-10.779
▁coincide	-10.7792
▁polo	-10.7803
▁superfici	-10.7808
▁condannato	-10.781
▁lecce	-10.7815
▁accede	-10.7819
▁león	-10.7821
-15	-10.7821
▁bol	-10.7824
▁unita	-10.7829
▁neonat	-10.7835
▁incendi	-10.784
hof	-10.7841
▁considerando	-10.7845
▁finge	-10.7857
▁creata	-10.7865
▁rappresentata	-10.7868
▁incrocia	-10.7876
▁britannici	-10.7883
▁individui	-10.7883
▁proposito	-10.7883
▁sospetta	-10.7883
▁supercoppa	-10.7883
▁1908	-10.7883
▁terminò	-10.7883
▁ritiene	-10.7883
▁petrolio	-10.7883
▁daimler	-10.7883
▁matematica	-10.7883
▁meschino	-10.7883
▁bensì	-10.7883
▁mantenut	-10.7884
▁garantire	-10.7884
▁chimica	-10.7884
▁limiti	-10.7884
▁guardie	-10.7884
▁sicuro	-10.7884
▁consuma	-10.7884
▁criteri	-10.7884
▁pianura	-10.7885
▁romanzi	-10.7885
ombra	-10.7886
▁suddivision	-10.7886
▁appres	-10.7888
▁francisco	-10.7888
▁aggiudica	-10.7888
▁ritornare	-10.7889
▁jones	-10.789
▁torpedinier	-10.789
▁nostri	-10.7891
▁drago	-10.7891
▁marchese	-10.7893
▁frutti	-10.7893
▁norme	-10.7894
▁niente	-10.7896
▁river	-10.7902
▁corsica	-10.7902
abside	-10.7902
▁usati	-10.7904
▁stabilimento	-10.7906
▁eccezion	-10.7907
▁orientali	-10.7914
▁jan	-10.7915
spin	-10.7919
▁stabilito	-10.7926
▁yo	-10.7927
▁robot	-10.793
▁minima	-10.7934
▁name	-10.7936
sacra	-10.794
▁andato	-10.7946
▁comic	-10.7948
▁corea	-10.7949
▁36	-10.7959
▁situati	-10.7963
▁affidato	-10.7965
▁medesim	-10.7966
nell	-10.7966
▁logo	-10.797
gine	-10.7971
▁cristiani	-10.7982
▁reggio	-10.7982
▁digital	-10.7983
▁nodi	-10.7988
▁1950	-10.7988
detto	-10.7997
oratorio	-10.7997
egitto	-10.8001
▁stone	-10.8007
monte	-10.8017
▁governativ	-10.8031
▁succede	-10.8035
quilibrio	-10.8039
▁elettrica	-10.8039
▁incontrò	-10.8039
▁pronuncia	-10.8039
▁salisburgo	-10.8039
▁tonnellate	-10.8039
▁dodicesim	-10.804
▁edoardo	-10.804
▁spettacoli	-10.804
▁regolarmente	-10.804
▁caterina	-10.804
▁incluso	-10.804
▁cercò	-10.804
▁divinità	-10.804
▁sentimenti	-10.804
▁omaggio	-10.804
▁sepolto	-10.804
▁missioni	-10.804
▁mobili	-10.804
▁facile	-10.8041
▁dotati	-10.8041
▁dolore	-10.8041
▁oriente	-10.8041
entità	-10.8042
▁economiche	-10.8042
▁camere	-10.8042
acquisizione	-10.8043
▁definitivo	-10.8043
▁ostacol	-10.8046
▁moneta	-10.8047
▁profondamente	-10.8047
▁documentario	-10.8048
▁manifestazioni	-10.8048
▁zero	-10.8051
▁nostro	-10.8052
▁funzionamento	-10.8055
▁scontri	-10.8055
▁azienda	-10.8059
▁sostitui	-10.806
▁crocifisso	-10.8062
▁fidanzato	-10.8062
ailor	-10.8064
▁vinc	-10.8064
▁concentrazione	-10.8064
▁immagine	-10.8066
▁sufficiente	-10.8068
▁bacino	-10.8069
▁seppe	-10.8069
▁barra	-10.8078
▁intero	-10.8083
4)	-10.8084
▁fondatori	-10.8091
▁impre	-10.8093
▁moda	-10.8102
esilio	-10.8106
▁genti	-10.8112
▁matura	-10.8115
▁prete	-10.8121
▁rosse	-10.8126
▁espa	-10.8131
▁singola	-10.8134
▁raggiungendo	-10.8135
▁personali	-10.8136
▁fonde	-10.8138
▁jam	-10.8146
▁serve	-10.8154
▁partiti	-10.8184
▁altezza	-10.8186
ör	-10.819
▁femmine	-10.8198
▁quattordici	-10.8198
▁scoprì	-10.8198
atteggiamento	-10.8198
▁fontana	-10.8198
▁posteriori	-10.8198
▁scelse	-10.8198
▁campagne	-10.8198
▁giardino	-10.8198
▁occasioni	-10.8198
▁rottura	-10.8198
▁rfid	-10.8198
▁bottega	-10.8198
▁giuliano	-10.8198
▁culture	-10.8198
▁allievi	-10.8198
▁desidera	-10.8198
▁storiche	-10.8198
▁circolare	-10.8199
▁preferit	-10.8199
▁moderno	-10.8199
▁normalmente	-10.8199
▁lewis	-10.8199
▁death	-10.82
▁fasano	-10.82
▁maestri	-10.82
▁milanese	-10.8201
▁emilia	-10.8204
▁convogli	-10.8204
▁arcivescovo	-10.8204
▁risalg	-10.8206
▁cambiato	-10.8207
▁julia	-10.8208
▁predica	-10.8208
▁rotazione	-10.8213
▁poggia	-10.8218
▁wil	-10.8234
▁belle	-10.8235
▁terminata	-10.8236
esercizio	-10.8237
▁cuba	-10.8238
▁(12	-10.8241
▁cross	-10.8242
tions	-10.8245
▁utilizzo	-10.8246
▁eddie	-10.825
▁onora	-10.8251
▁riscontra	-10.8256
▁omicidi	-10.8259
▁singolare	-10.8263
▁privato	-10.8265
▁ron	-10.8265
aragona	-10.8273
▁progettato	-10.8277
▁vincent	-10.8277
▁donato	-10.8279
▁decisero	-10.8284
▁ancor	-10.8292
▁eliminare	-10.8298
▁anello	-10.8323
eliminazione	-10.8334
▁ring	-10.8335
▁definire	-10.8339
▁origina	-10.8342
ciotto	-10.8344
asburgo	-10.8349
▁vendica	-10.8352
improvvisa	-10.8359
▁efficace	-10.836
▁fantasma	-10.836
▁obiettivi	-10.836
▁rafforza	-10.836
▁religiose	-10.836
▁sebastian	-10.836
▁uccelli	-10.836
artiglieria	-10.836
▁cooperativa	-10.836
▁rimangono	-10.836
▁trophy	-10.836
▁troviamo	-10.836
▁costituzionale	-10.836
▁cognome	-10.836
▁positivo	-10.836
▁scolpit	-10.836
▁apparentemente	-10.836
▁frammenti	-10.836
▁banks	-10.836
tropo	-10.836
▁ripreso	-10.836
▁piloti	-10.836
▁riflette	-10.836
-16	-10.836
▁foglie	-10.836
▁disegni	-10.8361
sburg	-10.8361
▁elettronica	-10.8361
▁anglo	-10.8363
▁power	-10.8364
▁tenente	-10.8364
▁albano	-10.8365
▁schema	-10.8366
▁audio	-10.8366
▁risult	-10.8368
▁miglia	-10.8368
▁consiglier	-10.8369
▁gold	-10.8375
▁ferroviaria	-10.8377
anca	-10.8378
▁psich	-10.838
▁cristiano	-10.8382
▁effettuato	-10.8384
▁restitui	-10.8389
▁spetta	-10.8391
▁rifugia	-10.84
struttura	-10.8401
«	-10.8402
irlanda	-10.8403
istituzione	-10.8408
incendio	-10.8408
▁cile	-10.8414
aquila	-10.8417
elezione	-10.843
scritti	-10.8431
uci	-10.8437
matica	-10.8445
▁fornito	-10.8446
▁sottoposto	-10.8447
▁eredi	-10.845
▁moon	-10.8451
▁mostrano	-10.8452
archivio	-10.8455
▁classificazione	-10.8458
▁sceglie	-10.8459
lette	-10.846
▁binari	-10.8461
▁paragon	-10.8465
▁liberali	-10.8471
jar	-10.8479
kar	-10.848
▁irlanda	-10.8481
dove	-10.8484
▁contributo	-10.8493
▁lanciato	-10.8494
▁tornano	-10.8495
▁(14	-10.8507
300	-10.8523
▁alimentare	-10.8523
▁cambridge	-10.8523
▁danimarca	-10.8523
▁democrazia	-10.8523
▁norvegia	-10.8523
▁raggiungono	-10.8523
▁sacerdote	-10.8523
▁soccorso	-10.8523
▁sorprende	-10.8523
▁anteriore	-10.8523
▁risiede	-10.8523
▁presentò	-10.8523
▁produzioni	-10.8523
▁calamaro	-10.8524
▁soluzioni	-10.8524
▁cliente	-10.8524
▁ritirò	-10.8524
▁ammassi	-10.8524
▁nemico	-10.8524
▁virgin	-10.8524
▁pedro	-10.8524
▁esigenze	-10.8524
▁consumo	-10.8524
▁risveglia	-10.8524
▁millenni	-10.8524
▁savage	-10.8524
▁cannoni	-10.8525
▁comprese	-10.8525
▁evangeli	-10.8525
▁ovelia	-10.8526
▁alternativa	-10.8526
▁coppie	-10.8526
universal	-10.8526
▁inserita	-10.8528
▁riuscire	-10.8529
▁bianche	-10.8529
▁belgio	-10.853
▁compra	-10.8531
▁rischia	-10.8531
▁vendetta	-10.8532
▁parentesi	-10.8534
▁ferroviario	-10.8535
▁visual	-10.8536
▁promette	-10.8538
▁nube	-10.8541
▁xxi	-10.8547
▁voto	-10.8548
▁piero	-10.855
▁carena	-10.8551
▁atene	-10.8554
citazione	-10.8559
▁bach	-10.8561
▁esponenti	-10.8563
▁legate	-10.8566
orientale	-10.8568
albero	-10.8568
originale	-10.8569
ascesa	-10.8579
carlo	-10.8579
ddy	-10.858
assenza	-10.858
▁accademi	-10.8581
▁awards	-10.8582
▁incarico	-10.8586
▁rein	-10.8598
▁binario	-10.86
▁medesimo	-10.8602
corse	-10.8612
▁attribuita	-10.8614
▁iniziativa	-10.8619
▁cosm	-10.8626
zel	-10.8626
▁organo	-10.8629
▁battendo	-10.8631
▁facent	-10.8636
argomento	-10.8641
▁cercano	-10.8644
gel	-10.865
▁zan	-10.867
tologia	-10.8671
lyn	-10.8676
▁prosegue	-10.8682
▁superato	-10.8682
elmo	-10.8685
tsch	-10.8689
▁accettò	-10.869
▁differenze	-10.869
▁discussione	-10.869
▁istituzioni	-10.869
▁livorno	-10.869
▁sconfitti	-10.869
▁sostenere	-10.869
▁biglietti	-10.869
▁esattamente	-10.869
▁pontificio	-10.869
imprenditore	-10.869
▁bisogna	-10.869
▁silenzio	-10.869
▁musulman	-10.869
▁bambina	-10.869
▁indietro	-10.869
▁parsec	-10.869
▁perfettamente	-10.869
▁rivolge	-10.869
▁declino	-10.869
▁radiazione	-10.869
▁vaticano	-10.869
▁simpson	-10.869
▁pesanti	-10.869
▁permanente	-10.869
▁ridotto	-10.869
▁catania	-10.869
▁gemella	-10.8691
▁profondo	-10.8691
▁pacifico	-10.8691
▁united	-10.8691
▁tabella	-10.8691
▁tornei	-10.8691
▁1933	-10.8692
▁tempera	-10.8692
▁minoranz	-10.8692
▁1932	-10.8693
▁decorazione	-10.8693
grande	-10.8693
▁confronta	-10.8694
▁vincitori	-10.8694
▁palazzi	-10.8694
▁ritard	-10.8696
▁mitch	-10.8705
▁recentemente	-10.8708
▁visse	-10.8711
▁pozzo	-10.8713
▁matteo	-10.8714
gy	-10.8716
▁riduzion	-10.8718
▁vissuto	-10.8724
▁roll	-10.8726
▁prospett	-10.8736
▁consola	-10.8736
▁cento	-10.8737
▁58	-10.8737
▁finanziaria	-10.8742
▁fedele	-10.8743
acido	-10.8746
▁momenti	-10.8757
▁liberare	-10.8758
mmu	-10.8759
▁cause	-10.8759
▁sviluppare	-10.8759
▁130	-10.8762
▁avven	-10.8767
▁canne	-10.8773
aumento	-10.8774
▁rappresentante	-10.8776
▁voli	-10.8781
▁posiziona	-10.8789
▁salone	-10.8793
▁doc	-10.8794
▁franz	-10.8798
▁scopri	-10.8805
▁whi	-10.8812
segnò	-10.8812
▁spia	-10.8819
▁volere	-10.8821
ggiato	-10.8825
▁carlos	-10.8829
▁completata	-10.8843
▁elabora	-10.8848
▁esercizio	-10.885
▁girl	-10.8859
▁arnolfo	-10.886
▁consecutive	-10.886
▁emanuele	-10.886
▁impossibile	-10.886
▁riferimenti	-10.886
▁risoluzione	-10.886
▁richieste	-10.886
▁sloveni	-10.886
▁tecnici	-10.886
▁scambio	-10.886
▁girolamo	-10.886
▁fallimento	-10.886
▁crateri	-10.886
▁seguita	-10.886
▁colonie	-10.886
▁montuos	-10.886
▁accorge	-10.886
▁stimol	-10.886
▁tradizioni	-10.886
▁contenere	-10.886
▁driver	-10.8861
▁ruote	-10.8861
assalto	-10.8861
▁mercanti	-10.8862
▁kelly	-10.8862
▁berlina	-10.8862
▁nicole	-10.8862
▁1928	-10.8862
▁responsabilità	-10.8862
▁larry	-10.8863
▁rimanendo	-10.8863
▁pagamento	-10.8873
▁certamente	-10.8879
▁collezioni	-10.8882
anello	-10.8883
▁boschi	-10.8884
▁interessante	-10.8889
▁frase	-10.8895
ving	-10.8897
▁ognuno	-10.8903
importante	-10.8911
antonio	-10.8911
▁erede	-10.8915
tenti	-10.8917
▁afferm	-10.8918
orsa	-10.8918
▁operatori	-10.8928
▁progressi	-10.8932
▁magia	-10.8935
▁will	-10.8935
▁magno	-10.8936
▁associato	-10.8937
aveva	-10.8945
▁hop	-10.8945
▁kg	-10.8946
▁regna	-10.895
▁leggera	-10.8956
▁appai	-10.8956
▁sfera	-10.8956
▁finì	-10.8967
▁bou	-10.8968
▁impegnato	-10.8976
▁180	-10.8984
▁120	-10.8992
▁finito	-10.8994
▁convoca	-10.8998
▁assenza	-10.8999
▁uccisi	-10.9001
storia	-10.9011
▁passata	-10.9011
▁creando	-10.9021
mond	-10.9023
▁relativ	-10.9029
▁apposit	-10.9032
individuo	-10.9032
▁soggiorno	-10.9032
▁televisivo	-10.9032
▁ticketmaster	-10.9032
aeronautica	-10.9032
▁barcellona	-10.9032
▁globul	-10.9032
▁maurizio	-10.9032
▁fiorentino	-10.9032
▁giganti	-10.9032
▁spoglia	-10.9032
▁beatrice	-10.9032
▁complessa	-10.9032
▁tempesta	-10.9032
▁rossoneri	-10.9032
▁autonomo	-10.9032
▁annunciò	-10.9032
▁ebrei	-10.9032
▁puglia	-10.9033
▁umane	-10.9033
▁svariat	-10.9033
▁clemente	-10.9033
▁banco	-10.9034
▁critici	-10.9035
▁negativa	-10.9035
▁toglie	-10.9036
▁complica	-10.9039
pongono	-10.904
▁determinato	-10.9042
▁neanche	-10.9044
▁aiutato	-10.9048
▁vorrebbe	-10.9048
▁descritto	-10.9049
▁maglie	-10.9051
▁nordamerica	-10.9053
▁access	-10.9055
djet	-10.9055
▁andando	-10.9055
▁tab	-10.9055
▁chiaramente	-10.9056
▁2-1	-10.9056
▁paura	-10.9056
▁costrett	-10.9065
▁dichiarazione	-10.9071
▁accoglienza	-10.9077
▁comics	-10.9079
▁variazione	-10.9079
ggono	-10.9083
accaduto	-10.9083
occidentale	-10.9086
identità	-10.9086
▁mezza	-10.9087
▁bull	-10.9088
vecchia	-10.909
approvazione	-10.9092
down	-10.9092
▁patto	-10.9095
ottima	-10.9097
▁finestra	-10.9098
▁spina	-10.9098
▁vinci	-10.9099
▁impone	-10.91
▁relativo	-10.9108
▁marie	-10.9109
▁errore	-10.9116
▁mappa	-10.9129
▁approfitta	-10.913
_5	-10.9131
mund	-10.9142
▁villaggi	-10.9148
camera	-10.9152
▁impiegato	-10.9153
▁zar	-10.916
▁albert	-10.9169
velli	-10.9171
▁gru	-10.9176
linea	-10.9182
▁omonimo	-10.9184
▁pagare	-10.9185
▁espressione	-10.9193
▁ricordano	-10.9202
▁wea	-10.9202
arcipelago	-10.9207
▁difensore	-10.9207
▁elisabetta	-10.9207
▁intraprende	-10.9207
▁pompeo	-10.9207
▁videogiochi	-10.9207
▁juventus	-10.9207
▁nemmeno	-10.9207
▁olandese	-10.9207
▁pistola	-10.9207
▁composizioni	-10.9207
▁replica	-10.9207
▁tifosi	-10.9207
▁effettivamente	-10.9208
▁ingaggiato	-10.9208
▁corrado	-10.9208
▁elettorale	-10.9208
▁riforni	-10.9208
▁misure	-10.9208
▁tecnologie	-10.9208
▁incaricat	-10.9208
▁vedova	-10.9208
▁tradimento	-10.9208
▁fumetti	-10.9208
▁sceneggiatura	-10.9208
▁schiavi	-10.9208
▁automobilistica	-10.9209
▁1946	-10.921
▁1925	-10.9211
▁credito	-10.9212
▁dialetto	-10.9215
▁cambiamenti	-10.9216
▁golden	-10.9222
angeli	-10.9229
▁bilanci	-10.9231
▁lattea	-10.9233
▁normali	-10.9234
▁chip	-10.9236
▁fronti	-10.9238
opportunità	-10.9242
▁scopi	-10.9252
▁aprire	-10.9255
▁alleato	-10.9257
▁terroristi	-10.9261
importanza	-10.9264
enberg	-10.9266
osservatore	-10.9276
▁molta	-10.928
▁lavorando	-10.9281
▁approvato	-10.9282
tland	-10.9288
▁fame	-10.9293
▁41	-10.9295
▁matera	-10.9295
mur	-10.9296
▁innamorato	-10.9296
▁alloggi	-10.9298
▁olimpiade	-10.9306
▁definita	-10.9308
▁lucio	-10.9309
lé	-10.9329
south	-10.9332
▁scale	-10.9336
▁dimostrare	-10.9345
dur	-10.9349
▁pisano	-10.936
▁riprendere	-10.9373
installazione	-10.9378
▁collocato	-10.9379
▁johann	-10.9381
▁decisivo	-10.9386
▁millwall	-10.9386
▁cinematografica	-10.9386
▁airlines	-10.9386
▁stranieri	-10.9386
▁ripetut	-10.9386
▁walter	-10.9386
▁manuale	-10.9386
▁cantieri	-10.9386
▁soldato	-10.9386
▁risolvere	-10.9386
▁rimanda	-10.9386
▁raffin	-10.9387
▁disturb	-10.9387
▁orsini	-10.9388
▁compagin	-10.9388
▁galattic	-10.9388
ecclesia	-10.9388
▁condotti	-10.9388
▁cabine	-10.9388
▁generato	-10.9389
▁gregor	-10.9389
▁foreste	-10.9389
▁esterne	-10.939
▁benefici	-10.939
▁vasto	-10.9391
▁testimonianza	-10.9392
▁quartieri	-10.9392
▁implica	-10.9393
offensiva	-10.9394
denominat	-10.9394
▁victor	-10.9398
▁rompe	-10.9399
▁times	-10.94
▁1-0	-10.9401
▁jackson	-10.9401
▁regolamento	-10.9403
▁gravemente	-10.941
▁professionisti	-10.9412
▁toni	-10.9416
hp	-10.9419
▁svolgere	-10.942
▁uccidendo	-10.9422
-10	-10.9423
100	-10.9424
▁bosco	-10.943
▁ideali	-10.9433
▁gambe	-10.9445
ulteriore	-10.9446
▁gail	-10.9452
▁ritirato	-10.9452
▁daniele	-10.9455
▁associata	-10.9456
▁natali	-10.9462
▁rappresentativ	-10.9468
blu	-10.947
▁insediamento	-10.9472
▁rassegn	-10.9477
emergenza	-10.9479
▁attribuito	-10.9493
fetta	-10.9521
▁giornalisti	-10.9522
polo	-10.953
▁parrocchia	-10.9534
raggi	-10.9534
▁qual	-10.9545
▁permettendo	-10.9552
▁todi	-10.956
stituì	-10.9567
▁aprì	-10.9568
▁cellula	-10.9568
▁consapevole	-10.9568
▁denuncia	-10.9568
▁dycedarg	-10.9568
▁fondamentali	-10.9568
▁frequente	-10.9568
▁indagini	-10.9568
▁ovviamente	-10.9568
▁rifiutò	-10.9568
▁sviluppò	-10.9568
▁tanglangquan	-10.9568
▁affascina	-10.9568
▁ottenuta	-10.9568
▁pellicola	-10.9568
▁prodotte	-10.9568
▁veicolo	-10.9568
▁lontana	-10.9568
ternità	-10.9568
▁analizza	-10.9568
▁inediti	-10.9568
▁municipale	-10.9568
▁accordi	-10.9568
▁costruiti	-10.9568
▁coperto	-10.9568
▁oscura	-10.9569
▁disastro	-10.957
▁concezione	-10.9571
▁terrestre	-10.9572
▁trieste	-10.9572
▁borgogna	-10.9573
▁pareggio	-10.9575
▁capitali	-10.9576
▁corps	-10.9578
▁brucia	-10.9581
▁110	-10.9582
▁acquist	-10.9582
▁collocat	-10.9588
▁roccia	-10.9588
nitz	-10.9589
▁variazioni	-10.9591
vedette	-10.9592
▁finestre	-10.9593
▁1500	-10.9595
▁superare	-10.96
▁brit	-10.9619
▁apparizione	-10.9619
▁tentato	-10.9626
▁fiore	-10.9627
▁devast	-10.9627
▁qualificate	-10.9629
▁tipici	-10.963
partono	-10.9631
avvicina	-10.9632
appia	-10.9635
▁veri	-10.9637
più	-10.9648
▁croci	-10.9648
▁international	-10.9648
▁negozio	-10.9661
animazione	-10.9663
▁dora	-10.9671
▁seppur	-10.9676
▁panni	-10.9676
▁spinta	-10.9678
▁rilascia	-10.968
▁calci	-10.9682
▁green	-10.9685
▁distrugge	-10.9689
▁arena	-10.9694
hr	-10.9702
▁imbarca	-10.9714
▁norman	-10.9717
▁attrice	-10.9727
esame	-10.973
crash	-10.975
▁tecnolog	-10.975
▁scrittori	-10.975
appartenenza	-10.9753
▁continental	-10.9753
▁deputati	-10.9753
▁eugenio	-10.9753
▁eventuali	-10.9753
▁soprannominat	-10.9753
▁xavier	-10.9753
▁aggiunse	-10.9753
▁censura	-10.9753
▁pavimento	-10.9753
▁celeste	-10.9753
▁riviste	-10.9753
▁sintomi	-10.9754
▁cupola	-10.9754
▁ottimi	-10.9754
▁scusa	-10.9754
▁appositamente	-10.9754
ducono	-10.9754
▁editrice	-10.9755
▁temperature	-10.9755
▁uova	-10.9755
▁monitor	-10.9756
▁ribellione	-10.9756
▁kevin	-10.9756
▁1937	-10.9757
▁annuale	-10.9758
▁adibit	-10.9758
▁voglio	-10.976
▁tendenza	-10.9761
▁gamba	-10.9764
▁tony	-10.9764
▁radici	-10.9764
tecn	-10.9766
▁hill	-10.9767
▁modul	-10.9767
▁variabili	-10.9768
▁punk	-10.9769
▁minimo	-10.9772
▁gotico	-10.9778
▁estiva	-10.9779
▁privo	-10.978
▁riuscita	-10.9782
equivalente	-10.9783
kku	-10.979
▁lupo	-10.9793
▁perfezion	-10.9798
▁subentra	-10.9799
▁paesaggio	-10.9805
▁regolari	-10.9808
▁regni	-10.9815
▁collo	-10.9819
autorità	-10.982
▁digitali	-10.9832
▁mett	-10.9843
▁cavo	-10.9852
▁intenzione	-10.9855
▁cromati	-10.986
▁trasportare	-10.9864
▁studiato	-10.9865
▁studiò	-10.9866
▁dovevano	-10.9868
▁bill	-10.9869
▁divisioni	-10.9875
▁karla	-10.9877
▁socio	-10.9878
▁spinse	-10.9878
▁dimostr	-10.99
▁complessiva	-10.9902
▁aumentare	-10.9907
▁scalo	-10.9911
▁consider	-10.9913
▁trasform	-10.9913
▁altera	-10.9918
▁rotte	-10.9925
try	-10.9927
▁originari	-10.9938
▁risparmia	-10.9942
▁azeroth	-10.9942
▁cattolici	-10.9942
▁coinvolto	-10.9942
▁davvero	-10.9942
▁irlandese	-10.9942
▁molteplici	-10.9942
▁qualunque	-10.9942
▁samantha	-10.9942
▁sguardo	-10.9942
▁system	-10.9942
▁ungherese	-10.9942
▁wolverine	-10.9942
▁deputato	-10.9942
▁eseguire	-10.9942
▁ottenuti	-10.9942
▁tommaso	-10.9942
▁calciatori	-10.9942
▁florida	-10.9942
▁scoppio	-10.9942
▁svezia	-10.9942
mollusco	-10.9942
▁ubicat	-10.9942
▁interroga	-10.9942
▁rimasti	-10.9942
▁scoppia	-10.9942
▁voglia	-10.9942
▁tradotto	-10.9942
▁poveri	-10.9942
▁distrutta	-10.9942
▁wolf	-10.9943
▁1923	-10.9944
▁contadini	-10.9944
▁testimonianze	-10.9945
▁1921	-10.9945
agenzia	-10.9946
▁1916	-10.9946
▁association	-10.9946
foni	-10.9946
▁1913	-10.9947
▁corazza	-10.9947
▁ospitato	-10.9948
▁best	-10.9948
▁apostolica	-10.9951
▁precisamente	-10.9952
▁spezia	-10.9953
▁osservabile	-10.9954
destra	-10.9958
impo	-10.9958
argent	-10.9963
▁fermata	-10.9967
▁mutanti	-10.9968
▁compositore	-10.9968
▁rivali	-10.9971
▁deserto	-10.998
▁addestramento	-10.9985
▁costituit	-10.9987
▁stacca	-10.9987
▁provoc	-10.9988
▁chiam	-10.9989
▁scelte	-10.9992
pelli	-10.9992
nanzi	-10.9999
▁sconfiggendo	-11.0002
▁proteggere	-11.0002
▁appuntamento	-11.0004
film	-11.001
organo	-11.0012
▁bello	-11.0014
▁stradale	-11.0014
▁brad	-11.0016
classe	-11.0018
slav	-11.0019
▁eliminata	-11.0019
▁fibr	-11.0021
▁accedere	-11.0022
▁conservatori	-11.0029
▁catalogo	-11.0039
▁divisi	-11.004
▁way	-11.0047
venute	-11.0052
▁matrimoni	-11.0059
▁signor	-11.0073
▁equipaggiat	-11.008
▁undici	-11.0091
▁gramm	-11.0091
▁santissim	-11.01
▁controllare	-11.0105
▁vedeva	-11.0108
▁fargli	-11.011
▁2007-2008	-11.0134
▁cilindrata	-11.0134
▁disabitata	-11.0134
▁globale	-11.0134
▁raccolte	-11.0134
▁sacerdoti	-11.0134
▁celebri	-11.0134
▁cervello	-11.0134
▁invernali	-11.0134
▁panorama	-11.0134
▁videogioco	-11.0134
ventuale	-11.0134
▁sessuali	-11.0134
▁texas	-11.0134
▁spiaggia	-11.0134
▁uguale	-11.0134
▁colleziona	-11.0134
▁company	-11.0134
▁svincol	-11.0134
▁continue	-11.0134
▁permanenza	-11.0134
▁discorso	-11.0134
▁brescia	-11.0134
▁ridotta	-11.0134
▁tesoro	-11.0134
▁violino	-11.0134
▁intenzioni	-11.0135
▁decorazioni	-11.0135
▁ripete	-11.0135
▁decima	-11.0135
▁cinesi	-11.0135
▁commenta	-11.0135
progressivamente	-11.0136
▁1935	-11.0137
▁retrocedette	-11.0138
▁williams	-11.0138
▁decade	-11.0138
▁ammette	-11.014
▁fatte	-11.014
volgono	-11.0142
▁compiere	-11.0142
▁impose	-11.0146
▁futuri	-11.0147
▁scorre	-11.0149
▁rosario	-11.0153
▁collocazione	-11.0156
▁crescente	-11.0157
▁affrontarono	-11.016
▁suggerisce	-11.0166
▁autorizz	-11.0176
▁variante	-11.0176
estremo	-11.0178
▁wu	-11.018
▁convocato	-11.019
▁rivale	-11.0198
▁senese	-11.02
▁capra	-11.0206
▁infortunio	-11.0209
▁normativ	-11.0214
▁ideale	-11.0217
▁gay	-11.0221
second	-11.0222
stituzione	-11.0233
▁petto	-11.0234
▁giocando	-11.0235
▁fotografia	-11.0236
▁vetta	-11.0242
▁segnando	-11.0243
▁rotta	-11.0245
antichità	-11.0249
▁marge	-11.0287
▁quindici	-11.0299
▁sviluppata	-11.0313
▁claud	-11.0327
▁napoletano	-11.033
▁olimpici	-11.033
▁percentuale	-11.033
▁ribattezzat	-11.033
▁riconoscimenti	-11.033
▁scioglimento	-11.033
▁semifinali	-11.033
▁sloveno	-11.033
▁audrey	-11.033
▁cooperative	-11.033
▁costume	-11.033
▁giardini	-11.033
▁miguel	-11.033
▁sequenza	-11.033
▁trascorre	-11.033
▁residenti	-11.033
▁virtual	-11.033
▁compleanno	-11.033
▁proposto	-11.033
▁schermo	-11.033
▁riduce	-11.033
▁finanziat	-11.033
▁propose	-11.033
▁sportivi	-11.0332
▁dotate	-11.0332
▁produttori	-11.0332
▁rettore	-11.0333
▁milione	-11.0333
arresto	-11.0334
▁1911	-11.0334
▁transito	-11.0335
▁moderne	-11.0335
▁tennis	-11.0335
▁succedette	-11.0336
▁andré	-11.0336
▁vertici	-11.0337
▁proviene	-11.0338
▁promessa	-11.0339
▁gul	-11.034
▁ritirarsi	-11.0341
▁impara	-11.0342
▁parker	-11.0343
▁decorati	-11.0345
▁tipicamente	-11.0345
▁espone	-11.0346
▁salvatore	-11.0352
▁sudamerica	-11.0353
▁rimoss	-11.0354
▁ferrari	-11.0361
▁ritornò	-11.0366
▁esistenti	-11.0367
▁private	-11.0371
▁atomi	-11.0371
▁stabilità	-11.0372
▁giunti	-11.0375
▁indiana	-11.0378
▁rilevante	-11.0382
▁orchi	-11.0385
▁spezza	-11.0385
▁ciascun	-11.0386
▁arrivarono	-11.0387
▁your	-11.0396
▁alien	-11.0398
string	-11.0401
alimentazione	-11.0405
▁costretta	-11.0408
▁sostituire	-11.0409
▁scont	-11.0409
▁contesta	-11.0412
▁miss	-11.0415
▁ischia	-11.0419
▁spese	-11.0433
abbandono	-11.0438
▁vendere	-11.0444
andamento	-11.0446
▁170	-11.0447
▁chiedendo	-11.0451
adattamento	-11.0451
▁migliorare	-11.0456
▁frequentato	-11.0456
▁salita	-11.0466
▁olimpiadi	-11.0468
▁picco	-11.0469
▁soppressi	-11.0472
yon	-11.0475
▁avanzata	-11.0477
fermò	-11.0479
▁rimedi	-11.0481
▁presentazione	-11.0486
amanita	-11.0488
▁innalza	-11.0495
▁gogh	-11.0495
▁precisa	-11.052
▁veloci	-11.0526
▁2005-2006	-11.053
▁ambientali	-11.053
▁cinematografico	-11.053
▁contemporanei	-11.053
▁deposito	-11.053
▁familiari	-11.053
▁hardcore	-11.053
▁lombardo	-11.053
▁philadelphia	-11.053
▁phoenix	-11.053
▁riproduzione	-11.053
▁eseguito	-11.053
▁venduti	-11.053
▁continuo	-11.053
▁mantiene	-11.053
▁tedesche	-11.053
▁esplode	-11.053
▁corporation	-11.053
▁rovesci	-11.053
▁stesura	-11.053
▁veicoli	-11.053
▁settecento	-11.053
▁promulg	-11.053
▁conferenza	-11.053
▁galizia	-11.053
▁draft	-11.053
▁proposte	-11.053
▁sound	-11.053
▁giustifica	-11.053
▁feudi	-11.053
▁trecento	-11.0531
▁reperti	-11.0531
▁facce	-11.0531
▁droga	-11.0532
▁swan	-11.0532
▁raggiunta	-11.0532
▁1909	-11.0533
▁veleno	-11.0533
▁margine	-11.0533
▁1924	-11.0533
▁venisse	-11.0533
▁discute	-11.0535
▁bestia	-11.0535
▁bellezza	-11.0535
▁mercati	-11.0536
▁1910	-11.0537
▁annulla	-11.0537
nciò	-11.0537
▁ucciderlo	-11.0538
▁riferit	-11.0538
▁aperti	-11.0538
▁cancro	-11.0539
▁burns	-11.054
▁liberi	-11.0544
▁ballet	-11.0545
▁roger	-11.0547
▁turbo	-11.0548
▁perdono	-11.0549
▁piega	-11.0551
▁cifra	-11.0557
▁trovavano	-11.0558
▁letteraria	-11.056
modern	-11.0569
▁letteralmente	-11.0581
▁sacco	-11.0582
▁parteciparono	-11.0583
▁kir	-11.0585
hotel	-11.0594
▁trattamento	-11.0604
▁nubi	-11.0607
▁duro	-11.0613
="	-11.0619
libro	-11.0624
▁scappare	-11.0625
complet	-11.0627
▁riconoscere	-11.0627
▁inaugur	-11.0632
700	-11.0635
▁altrimenti	-11.0641
▁baer	-11.0643
▁tiri	-11.0646
▁tradito	-11.0649
wh	-11.0657
social	-11.0674
▁protegge	-11.0678
▁valeri	-11.0685
assetto	-11.071
▁esseri	-11.0715
▁gem	-11.0722
▁pelo	-11.0724
▁marchi	-11.073
▁conclusi	-11.073
fjörður	-11.0734
▁ginevra	-11.0734
▁hollywood	-11.0734
▁jacques	-11.0734
▁leopoldo	-11.0734
▁orizzontale	-11.0734
▁possedimenti	-11.0734
▁quotidiano	-11.0734
▁trasferta	-11.0734
▁brillanti	-11.0734
▁ospiti	-11.0734
▁pseudonimo	-11.0734
▁fedeltà	-11.0734
▁partner	-11.0734
▁inclusa	-11.0734
▁gallerie	-11.0734
▁esecutiv	-11.0734
▁junior	-11.0734
▁square	-11.0735
▁rovine	-11.0735
▁residu	-11.0735
▁vicine	-11.0735
▁alfred	-11.0735
▁jacob	-11.0736
▁telefoni	-11.0736
▁motonari	-11.0736
▁seguirono	-11.0737
▁utenti	-11.0737
▁major	-11.0738
▁1914	-11.0738
▁insiste	-11.0738
▁fisici	-11.0739
▁regala	-11.0739
▁svela	-11.074
▁vicinanze	-11.074
▁johannes	-11.074
▁valentin	-11.0745
▁giovanna	-11.0746
▁economici	-11.0751
▁1848	-11.0755
▁ridurre	-11.0755
▁parlando	-11.0757
▁sarda	-11.0758
▁applicazioni	-11.0759
▁pinne	-11.0759
▁fidanzata	-11.076
▁tirrenia	-11.0762
▁illuminat	-11.0763
▁galli	-11.0764
ordinamento	-11.0764
▁giudiziari	-11.0768
▁funge	-11.0772
▁rocco	-11.0773
▁baden	-11.0775
ción	-11.0776
▁adesso	-11.0777
▁aspira	-11.0778
▁abbiamo	-11.0778
▁federale	-11.0779
plat	-11.078
▁realmente	-11.0781
▁esistente	-11.0786
▁staff	-11.0807
vennero	-11.0819
▁inclusi	-11.082
▁calde	-11.083
▁verdi	-11.0834
▁armato	-11.0834
▁stein	-11.0837
▁monk	-11.084
intrecci	-11.0845
▁curva	-11.0847
▁acquistata	-11.0859
▁mill	-11.086
▁piz	-11.0862
fusion	-11.0866
organismo	-11.0866
▁daniel	-11.087
azzurra	-11.087
▁mega	-11.0886
▁tang	-11.0889
▁mr	-11.0891
▁passaggi	-11.0899
rush	-11.0903
approccio	-11.0912
izzati	-11.0913
▁trasferir	-11.0928
▁affaccia	-11.0943
▁battaglie	-11.0943
▁consecutivo	-11.0943
▁convenzional	-11.0943
▁costrinse	-11.0943
▁mountain	-11.0943
▁niccolò	-11.0943
▁occupò	-11.0943
▁repressione	-11.0943
▁supplementari	-11.0943
▁svedese	-11.0943
▁verosimilmente	-11.0943
▁esonerato	-11.0943
▁vuoto	-11.0943
▁ospite	-11.0943
▁errori	-11.0943
▁decreta	-11.0943
ground	-11.0943
▁grafico	-11.0943
▁toronto	-11.0943
▁prevista	-11.0943
odierna	-11.0943
▁ottimo	-11.0943
▁michelangelo	-11.0944
▁sacrifica	-11.0944
▁scuro	-11.0944
▁earth	-11.0944
▁build	-11.0945
▁crimini	-11.0945
▁continuità	-11.0946
▁ignora	-11.0947
▁denver	-11.0951
▁macchia	-11.0952
▁colpisce	-11.0952
▁pausa	-11.0953
▁priori	-11.0953
▁gialla	-11.0958
▁distante	-11.0959
vík	-11.0959
avvento	-11.096
▁comparsa	-11.0968
▁ritrov	-11.0975
▁intensi	-11.0976
seconda	-11.0982
▁dirigente	-11.099
▁crebbe	-11.1
▁romanico	-11.1006
▁ritirata	-11.1009
▁palco	-11.1009
esempio	-11.1034
cinque	-11.1034
ière	-11.1036
▁salda	-11.1036
▁risalire	-11.1042
▁razza	-11.1042
▁rover	-11.1051
▁avviato	-11.1051
▁specchi	-11.1052
andata	-11.106
▁settima	-11.1066
▁catturati	-11.1069
▁editori	-11.1071
▁acces	-11.1073
▁sergi	-11.1089
▁organizzati	-11.1093
▁archivi	-11.1101
uzzi	-11.1107
▁eliminati	-11.1113
pool	-11.1119
▁(11	-11.113
▁insedia	-11.1148
▁profonda	-11.1148
▁penetra	-11.1149
▁britanniche	-11.1155
▁cilindro	-11.1155
▁country	-11.1155
▁descrisse	-11.1155
▁dispositivo	-11.1155
▁eccellenza	-11.1155
▁nacional	-11.1155
▁nucleare	-11.1155
▁occidentali	-11.1155
▁professione	-11.1155
▁riconquista	-11.1155
▁riflessione	-11.1155
▁eseguita	-11.1155
▁seleziona	-11.1155
▁espresso	-11.1155
▁monumenti	-11.1155
▁consolida	-11.1155
▁rifiuto	-11.1155
▁verticale	-11.1155
▁dopodiché	-11.1155
▁seminario	-11.1155
▁sostanza	-11.1155
▁tritium	-11.1155
▁poesie	-11.1155
▁ritratti	-11.1155
▁avril	-11.1155
▁rotonda	-11.1156
▁birra	-11.1156
▁chiesto	-11.1156
▁autonoma	-11.1156
▁ferrovie	-11.1156
▁ultra	-11.1156
▁laterale	-11.1156
▁convinta	-11.1156
▁autobot	-11.1158
▁discendenza	-11.1158
▁ciclismo	-11.1159
▁compiuto	-11.116
▁sorelle	-11.116
sposti	-11.116
▁morgan	-11.1163
▁assedia	-11.1164
▁provved	-11.1164
▁telaio	-11.1165
acciaio	-11.1166
▁moltissim	-11.1171
venuti	-11.1173
▁scozia	-11.1174
▁qualificazioni	-11.1176
▁italo	-11.1177
▁genealogia	-11.1178
▁sostenitori	-11.1179
▁head	-11.1179
▁talento	-11.1187
▁insegnante	-11.1187
▁divina	-11.1196
▁giusta	-11.1202
▁vieta	-11.1203
ridge	-11.122
▁force	-11.1226
▁condizion	-11.1228
ppure	-11.1238
▁licenziato	-11.124
usciti	-11.124
▁distribu	-11.1247
▁richiam	-11.125
retrocessione	-11.1251
▁cessa	-11.1255
▁legami	-11.1257
▁grim	-11.1258
▁debutt	-11.1261
rí	-11.1261
esiste	-11.1268
▁monza	-11.1273
▁dovut	-11.128
▁lavorava	-11.1294
▁suscita	-11.1298
▁sorpres	-11.1308
classic	-11.1313
▁susan	-11.1322
bach	-11.1324
▁consigli	-11.1353
▁56	-11.1361
▁decisa	-11.1363
▁facili	-11.1369
orso	-11.1372
tradizionalmente	-11.1373
▁curiosità	-11.1373
▁destinazione	-11.1373
▁diocesano	-11.1373
▁dispositivi	-11.1373
▁entusiast	-11.1373
▁podestà	-11.1373
▁pugilato	-11.1373
▁rimbalzi	-11.1373
▁violenta	-11.1373
▁frequenza	-11.1373
▁pakistan	-11.1373
▁provenienza	-11.1373
▁galassia	-11.1373
▁pontefice	-11.1373
▁recluta	-11.1373
▁consorte	-11.1373
▁pietroburgo	-11.1373
▁aggiunti	-11.1373
▁particelle	-11.1373
▁allievo	-11.1373
▁clienti	-11.1373
▁piscina	-11.1373
▁vertice	-11.1373
▁draghi	-11.1373
▁rocce	-11.1373
▁missionari	-11.1373
▁decimo	-11.1373
hainaut	-11.1374
▁picchia	-11.1375
▁online	-11.1375
▁contempo	-11.1375
▁1905	-11.1375
▁docente	-11.1376
▁camion	-11.1376
▁esteso	-11.1376
▁provvediment	-11.1377
▁vigili	-11.1377
▁convertit	-11.1378
▁cappello	-11.1378
▁drau	-11.1379
▁patrona	-11.1379
▁mitologia	-11.1379
▁pacifica	-11.138
▁settori	-11.138
▁discendente	-11.138
▁disponibilità	-11.138
▁diresse	-11.1381
▁accenn	-11.1381
▁arezzo	-11.1381
▁pig	-11.1385
▁mauro	-11.1386
▁conversazion	-11.1386
undicesim	-11.1388
▁marat	-11.1389
work	-11.139
▁operativa	-11.1396
▁dipendenti	-11.1397
▁agosti	-11.1401
▁localizzata	-11.1403
▁1860	-11.1407
▁magic	-11.1408
▁contatti	-11.1408
▁cortile	-11.1424
▁mobile	-11.1436
▁ingegneri	-11.1442
▁continuarono	-11.1442
▁massimi	-11.1449
▁batteria	-11.145
▁parma	-11.1451
▁assorbit	-11.1456
▁cardinali	-11.1467
armamento	-11.1472
australia	-11.1497
▁basse	-11.1504
▁bolla	-11.1505
insegnamento	-11.1505
▁guadagn	-11.1509
1981	-11.1509
▁baia	-11.151
▁aggregat	-11.1512
▁animale	-11.1518
▁energi	-11.1538
▁manifest	-11.1554
ottava	-11.1556
ificare	-11.1568
nziali	-11.1581
duttore	-11.1592
▁carol	-11.1593
-21	-11.1594
idrogeno	-11.1595
rinascimentale	-11.1595
▁discipline	-11.1595
▁kennedy	-11.1595
▁lombardia	-11.1595
▁monasteri	-11.1595
▁nobiltà	-11.1595
▁prigioniero	-11.1595
▁provvisori	-11.1595
▁scienziati	-11.1595
▁specifici	-11.1595
▁spontane	-11.1595
▁abbraccia	-11.1595
▁caravaggio	-11.1595
▁coscienza	-11.1595
▁femmina	-11.1595
▁prototipo	-11.1595
▁gaetano	-11.1595
▁funzionalità	-11.1595
▁seguaci	-11.1595
▁seicento	-11.1595
▁compagna	-11.1595
▁ligure	-11.1595
▁edilizi	-11.1596
▁immobili	-11.1596
▁confronto	-11.1596
▁navate	-11.1596
▁offerto	-11.1596
▁seduta	-11.1596
▁yoshi	-11.1596
▁henri	-11.1597
▁collana	-11.1597
▁sportive	-11.1597
▁titani	-11.1598
▁colossale	-11.1598
israel	-11.1598
▁pannelli	-11.1598
▁mappe	-11.1598
▁diesel	-11.1598
▁cancellat	-11.1599
▁valido	-11.1599
analoga	-11.16
▁inciso	-11.1601
▁pronta	-11.1601
▁significativa	-11.1601
determin	-11.1602
▁strappa	-11.1602
ascensione	-11.1603
▁vedono	-11.1604
▁contamina	-11.1604
▁biologia	-11.1604
▁solenne	-11.1604
▁1900	-11.1605
▁territoriale	-11.1605
▁140	-11.1608
▁rivestit	-11.1608
▁pugno	-11.161
▁somme	-11.1611
▁sedicesim	-11.1612
▁iniziative	-11.1613
▁tipiche	-11.1614
govern	-11.1618
utente	-11.1622
talmente	-11.1624
▁debito	-11.1624
▁organizz	-11.1628
▁decoll	-11.1634
▁metallo	-11.1634
▁1830	-11.1635
▁lucca	-11.1639
▁pronto	-11.1644
▁eretta	-11.1648
▁demone	-11.1658
▁hd	-11.1668
sher	-11.1672
▁coloss	-11.1672
▁hannover	-11.1694
▁sostituita	-11.1695
bahn	-11.1698
intenzione	-11.17
tribuito	-11.1702
▁600	-11.1714
ampliamento	-11.1715
▁patri	-11.1717
▁troll	-11.1718
▁125	-11.1725
baud	-11.1726
▁punte	-11.1732
ampia	-11.1736
poem	-11.1738
▁sostenut	-11.1747
how	-11.1756
▁metropolitan	-11.1758
indice	-11.1759
avversario	-11.1781
▁caus	-11.1792
900	-11.1811
▁epic	-11.1812
ificò	-11.1818
▁esplicit	-11.1821
völlur	-11.1822
▁bartolomeo	-11.1822
▁democratico	-11.1822
▁femminili	-11.1822
▁gioventù	-11.1822
▁intenzionat	-11.1822
▁package	-11.1822
▁precisione	-11.1822
▁richiesto	-11.1822
▁stabilì	-11.1822
▁televisive	-11.1822
▁tsingtao	-11.1822
▁videoclip	-11.1822
▁approda	-11.1822
▁colpevole	-11.1822
▁ricchezza	-11.1822
esperimento	-11.1822
▁hamilton	-11.1822
▁velivoli	-11.1822
▁cattolico	-11.1822
▁raffael	-11.1822
▁diagnosi	-11.1822
▁nascosta	-11.1822
▁parziale	-11.1822
▁schiaccia	-11.1822
▁sbaglia	-11.1822
▁agenzie	-11.1822
▁tragedia	-11.1822
▁situazioni	-11.1822
▁scarsità	-11.1822
▁granduca	-11.1822
▁dispersi	-11.1822
atlantico	-11.1822
▁stavolta	-11.1822
▁fisiche	-11.1822
▁banchi	-11.1823
▁división	-11.1823
▁institute	-11.1823
▁infuria	-11.1823
▁statuto	-11.1823
▁impostat	-11.1823
▁elenca	-11.1823
▁decine	-11.1824
aggiornament	-11.1824
positive	-11.1824
▁bombardamento	-11.1825
attentato	-11.1825
▁derby	-11.1826
▁preferisc	-11.1826
indagine	-11.1826
affermazione	-11.1826
▁interviene	-11.1826
▁pagine	-11.1828
▁calcolo	-11.183
▁batterista	-11.183
▁lapide	-11.183
▁pubblicitari	-11.183
▁inviò	-11.1832
▁firmò	-11.1833
▁hawk	-11.1833
▁grotta	-11.1835
▁ponendo	-11.1836
▁sentenza	-11.1836
▁pirati	-11.1837
▁poker	-11.184
_4	-11.1842
▁prossima	-11.1842
▁difese	-11.1842
▁descritti	-11.1842
▁sceneggiat	-11.1843
▁letterario	-11.1844
▁citata	-11.1845
▁lady	-11.1846
▁progettazione	-11.1848
▁arabi	-11.1852
▁rapida	-11.1854
▁1890	-11.1858
▁belga	-11.1863
▁pavia	-11.1869
▁indiani	-11.1871
▁parente	-11.1873
▁celebrazione	-11.1874
▁german	-11.1884
▁diverti	-11.1884
▁fossa	-11.1888
nazionale	-11.1891
▁karl	-11.1898
▁concepit	-11.1903
intesa	-11.1903
▁central	-11.1908
▁pretende	-11.1916
▁totalizza	-11.1932
articolo	-11.1933
abitato	-11.1935
▁chiamava	-11.1946
acqui	-11.1947
▁madam	-11.1958
▁milit	-11.1965
▁realizzando	-11.1968
▁terror	-11.1978
▁spareggi	-11.198
▁scontra	-11.1981
water	-11.1991
▁reag	-11.2007
▁sacri	-11.2018
▁imita	-11.2031
spect	-11.204
▁suprema	-11.2053
longitudine	-11.2055
▁2006-2007	-11.2055
▁geoffrey	-11.2055
▁giurisdizione	-11.2055
▁louvre	-11.2055
▁soprannome	-11.2055
▁sospeso	-11.2055
▁sostanzialmente	-11.2055
▁sosteneva	-11.2055
▁sviluppi	-11.2055
▁velivolo	-11.2055
▁wilhelm	-11.2055
▁depositi	-11.2055
▁frequenti	-11.2055
▁possedeva	-11.2055
▁seattle	-11.2055
efficacia	-11.2055
▁circostante	-11.2055
▁maturità	-11.2055
▁cristoforo	-11.2055
▁disposto	-11.2055
▁malattie	-11.2055
▁scoperte	-11.2055
▁consacrazione	-11.2055
▁spartak	-11.2055
▁incinta	-11.2055
▁gloria	-11.2055
▁raramente	-11.2055
automobile	-11.2055
▁esperti	-11.2055
▁ottomano	-11.2055
▁squalifica	-11.2055
▁convenzione	-11.2056
▁sostenne	-11.2056
▁cartone	-11.2057
amichevole	-11.2057
▁beatles	-11.2057
▁pietre	-11.2057
▁concetti	-11.2057
▁prendono	-11.2057
▁battuto	-11.2058
▁insediamenti	-11.2058
▁tavole	-11.2058
▁1918	-11.2059
▁megaman	-11.2059
▁cucina	-11.2059
▁miranda	-11.2061
▁dialogo	-11.2061
▁significativo	-11.2063
▁archeologici	-11.2063
ottavo	-11.2066
▁proteste	-11.2066
▁caldera	-11.2067
▁freddo	-11.2071
▁3-0	-11.2071
▁baby	-11.2072
▁bacio	-11.2075
▁riscoss	-11.208
▁poppa	-11.2083
▁storicamente	-11.2086
▁oscar	-11.2087
▁abitazioni	-11.2089
▁fortificazion	-11.2092
▁allarga	-11.2094
▁parrocchiale	-11.2098
▁modena	-11.2109
▁ragno	-11.211
▁veramente	-11.2119
▁calda	-11.2122
▁porzione	-11.2126
▁atmosfer	-11.2126
costituzion	-11.2127
opus	-11.2129
▁delimita	-11.2159
▁marini	-11.2181
▁goal	-11.2181
▁'70	-11.2201
▁batteri	-11.2202
summ	-11.2207
ografiche	-11.2212
▁wang	-11.2213
aperto	-11.2218
ault	-11.2238
▁espans	-11.2244
▁precedut	-11.2252
▁medica	-11.2268
autrice	-11.2269
▁simula	-11.2278
▁vor	-11.2284
▁responsabili	-11.2289
smackdown	-11.2293
▁1999-2000	-11.2293
▁aggiunto	-11.2293
▁democratica	-11.2293
▁elettrico	-11.2293
▁gerusalemme	-11.2293
▁mammiferi	-11.2293
▁procedura	-11.2293
▁razionali	-11.2293
▁ripristina	-11.2293
▁scienziato	-11.2293
▁windmill	-11.2293
▁criminali	-11.2293
▁finlandia	-11.2293
▁giacomina	-11.2293
▁portoghese	-11.2293
▁ristampa	-11.2293
▁ecclesiastica	-11.2293
▁respinge	-11.2293
▁nazista	-11.2293
▁radicali	-11.2293
▁database	-11.2293
▁linciaggi	-11.2293
▁positivi	-11.2293
▁dibattito	-11.2293
▁urbana	-11.2293
▁espressa	-11.2293
▁paradiso	-11.2293
▁agrias	-11.2293
▁traspare	-11.2293
▁charlie	-11.2293
▁ccdu	-11.2293
▁elevate	-11.2293
▁boreale	-11.2293
▁coperta	-11.2293
▁dipinge	-11.2294
▁rivolto	-11.2294
▁navali	-11.2294
▁gwen	-11.2294
▁sonorità	-11.2294
▁magnific	-11.2294
▁inquadra	-11.2295
▁bbc	-11.2295
▁tribun	-11.2296
▁casual	-11.2296
▁editoriale	-11.2296
▁chola	-11.2296
▁patrick	-11.2297
▁tipologia	-11.2297
▁trascina	-11.2297
▁accorda	-11.2297
▁ombre	-11.2297
▁annovera	-11.2297
▁sensazion	-11.23
▁autobus	-11.2302
▁banche	-11.2303
▁diffonder	-11.2303
▁descritta	-11.2304
▁sveglia	-11.2305
▁pagina	-11.2305
▁good	-11.2305
▁allenatori	-11.2305
veglia	-11.2306
▁velocemente	-11.231
▁indirizz	-11.2313
▁ryo	-11.2315
▁costruzioni	-11.2316
▁eroga	-11.2316
▁prossimo	-11.2317
▁morris	-11.2318
▁sardo	-11.2319
adozione	-11.232
▁interessanti	-11.2324
▁falso	-11.2328
▁consistente	-11.2333
▁fermo	-11.2335
▁scarso	-11.2339
▁troia	-11.234
prime	-11.2341
▁lavoratori	-11.2341
▁fraser	-11.2343
▁contrastar	-11.2345
▁cantanti	-11.235
▁franca	-11.235
▁libra	-11.2351
▁draco	-11.236
▁pubblicazioni	-11.236
estetica	-11.236
▁paio	-11.2367
▁subisc	-11.2375
you	-11.2375
▁sasso	-11.238
accampamento	-11.2382
▁jeff	-11.2385
▁astronomi	-11.2399
oltre	-11.24
finì	-11.2415
nuovo	-11.2416
▁andava	-11.2422
sfera	-11.2427
▁contribuisc	-11.2454
imponente	-11.2493
▁russi	-11.2495
▁soppression	-11.2501
orient	-11.2513
▁archeologi	-11.2517
estrazione	-11.2522
cross	-11.2525
▁gun	-11.2525
▁tutt	-11.2536
▁cittadella	-11.2537
▁concorrenza	-11.2537
▁esordì	-11.2537
▁esperimenti	-11.2537
▁manutenzione	-11.2537
▁opposto	-11.2537
▁prussia	-11.2537
▁pérez	-11.2537
▁stephen	-11.2537
▁tonalità	-11.2537
▁zaibatsu	-11.2537
▁zalbag	-11.2537
▁čikatilo	-11.2537
▁diciassette	-11.2537
▁funebre	-11.2537
▁pazienti	-11.2537
▁probabilità	-11.2537
▁rivendica	-11.2537
▁condivide	-11.2537
▁pastorale	-11.2537
▁sforzi	-11.2537
orizzonte	-11.2537
▁avvenimenti	-11.2537
▁borbone	-11.2537
▁esposto	-11.2537
▁umberto	-11.2537
▁tensione	-11.2537
▁satellite	-11.2537
▁frontale	-11.2537
▁bronzi	-11.2537
▁nominò	-11.2537
▁fascista	-11.2537
▁fattura	-11.2537
▁amministrativo	-11.2537
▁uccisa	-11.2537
▁toledo	-11.2537
▁inseriti	-11.2537
▁ugolino	-11.2538
▁iolao	-11.2538
▁stupi	-11.2538
▁prosper	-11.2538
▁sfuma	-11.2538
▁bombardamenti	-11.2538
electro	-11.2539
▁avventure	-11.2539
▁detenuti	-11.254
▁convinse	-11.254
▁mantello	-11.254
▁bellissim	-11.254
▁delibera	-11.254
▁epoche	-11.2541
▁battuta	-11.2541
▁sostituì	-11.2542
▁1915	-11.2542
▁cornice	-11.2542
▁rendono	-11.2543
▁johnny	-11.2543
assistenza	-11.2544
▁perduto	-11.2546
▁ferita	-11.255
▁aziona	-11.255
▁fredda	-11.2551
▁sfruttamento	-11.2552
▁seguir	-11.2554
▁corrispondenti	-11.2555
▁1300	-11.2561
▁1814	-11.2564
intitola	-11.2567
▁collabor	-11.2578
jer	-11.258
▁praga	-11.258
▁cariche	-11.258
▁colline	-11.2584
▁giace	-11.2585
▁beau	-11.2592
▁fiera	-11.2593
abitazione	-11.2601
▁cubi	-11.2607
▁divino	-11.2618
▁young	-11.2638
yuki	-11.2643
accusa	-11.2665
inglese	-11.2666
bron	-11.2688
▁circ	-11.2693
▁3-1	-11.2728
band	-11.2731
▁varat	-11.2733
errore	-11.2737
▁minor	-11.2783
▁continui	-11.2783
improvviso	-11.2787
▁ambientale	-11.2787
▁attaccò	-11.2787
▁cellule	-11.2787
▁circostanze	-11.2787
▁entertainment	-11.2787
▁fabrizio	-11.2787
▁interrompe	-11.2787
▁luminosa	-11.2787
▁megatron	-11.2787
▁mussolini	-11.2787
▁piattaforma	-11.2787
▁purtroppo	-11.2787
▁riuscirà	-11.2787
▁sfortunat	-11.2787
▁tipologie	-11.2787
▁columbia	-11.2787
▁depressione	-11.2787
▁dintorni	-11.2787
▁misterioso	-11.2787
▁repertorio	-11.2787
▁sculture	-11.2787
▁venduta	-11.2787
▁clandestin	-11.2787
▁defunto	-11.2787
opinione	-11.2787
▁amalrico	-11.2787
▁architettonico	-11.2787
▁dilettanti	-11.2787
▁cantiere	-11.2787
▁scandalo	-11.2787
▁terribile	-11.2787
▁spiriti	-11.2787
▁manovra	-11.2787
▁svevia	-11.2787
▁cinquecento	-11.2787
▁chimico	-11.2787
▁fernando	-11.2787
▁succedut	-11.2787
assunzione	-11.2787
▁sapendo	-11.2787
▁network	-11.2787
strikers	-11.2787
▁accuse	-11.2787
▁halder	-11.2787
▁sottile	-11.2787
▁missili	-11.2787
▁biaggi	-11.2787
▁sofia	-11.2788
▁temporale	-11.2788
▁farmaci	-11.2788
▁padri	-11.2788
▁uniforme	-11.2788
▁curvatura	-11.2789
▁cuddy	-11.2789
▁feriti	-11.2789
▁fallito	-11.2789
▁capolinea	-11.279
▁poema	-11.279
▁group	-11.279
▁crociera	-11.279
▁shri	-11.2791
▁trilogia	-11.2792
▁sentire	-11.2792
▁naturalmente	-11.2793
▁sintesi	-11.2794
▁restaurata	-11.2797
▁decorato	-11.2797
▁respint	-11.2797
▁tenendo	-11.2798
▁archeologico	-11.2798
maestà	-11.2799
▁verranno	-11.2801
▁incidenti	-11.2802
▁dorso	-11.2806
iraq	-11.2808
▁cooperazione	-11.2815
▁helen	-11.2825
▁1887	-11.2827
▁varianti	-11.2829
▁dominante	-11.2833
▁arrangia	-11.2835
▁canton	-11.2841
▁confezion	-11.2846
▁pochissim	-11.2858
inaugurazione	-11.2864
vengono	-11.2867
foss	-11.2867
▁databil	-11.2889
▁campane	-11.2905
enorme	-11.2921
▁motor	-11.2926
appel	-11.2939
seguimento	-11.2942
▁acceler	-11.2951
appello	-11.2995
▁consegue	-11.2996
trappola	-11.302
mettersi	-11.3032
municipio	-11.3043
olympia	-11.3043
▁bilbao	-11.3043
▁compaiono	-11.3043
▁consecutivi	-11.3043
▁familiare	-11.3043
▁industrie	-11.3043
▁introduce	-11.3043
▁iscrizioni	-11.3043
▁meridionali	-11.3043
▁raggiungiment	-11.3043
▁scientifiche	-11.3043
▁spirituali	-11.3043
▁psichiatri	-11.3043
▁pugliese	-11.3043
▁giordano	-11.3043
▁offrire	-11.3043
▁scioglie	-11.3043
▁segreti	-11.3043
▁argentino	-11.3043
▁avenue	-11.3043
▁agricola	-11.3043
▁positiva	-11.3043
▁apparizioni	-11.3043
▁tokyo	-11.3043
▁densità	-11.3043
isolotto	-11.3043
▁blocco	-11.3043
▁carnegie	-11.3043
▁polveri	-11.3043
▁contenuta	-11.3043
▁flash	-11.3043
▁preciso	-11.3043
▁folk	-11.3043
▁osoppo	-11.3043
▁oceani	-11.3043
▁sovrappost	-11.3043
▁minuto	-11.3044
▁lentamente	-11.3044
▁civico	-11.3044
▁risolto	-11.3044
▁asuka	-11.3044
inchiesta	-11.3044
▁uaz	-11.3044
▁confusione	-11.3044
▁ussher	-11.3044
▁composti	-11.3044
▁telefilm	-11.3044
▁perfetto	-11.3044
▁certifica	-11.3044
▁compresi	-11.3044
▁tronco	-11.3045
▁dottoressa	-11.3045
▁specializzata	-11.3045
▁carolina	-11.3046
▁predispo	-11.3046
double	-11.3046
▁felicità	-11.3046
▁competenza	-11.3047
simmetri	-11.3048
▁estesa	-11.3048
▁benessere	-11.3049
▁declinazione	-11.3049
misero	-11.3049
abroga	-11.305
▁aggira	-11.305
▁clero	-11.3053
▁grigio	-11.3053
▁night	-11.3054
▁rango	-11.3057
▁pubblicità	-11.3057
martin	-11.3057
▁perdite	-11.3058
▁ricade	-11.3062
▁terry	-11.3063
▁apparire	-11.3066
▁necessariamente	-11.3068
script	-11.307
▁piede	-11.3071
▁sogni	-11.3072
▁robin	-11.3072
▁rientr	-11.3079
▁premier	-11.3087
mandò	-11.3095
murena	-11.3099
incisione	-11.3109
▁soul	-11.312
▁miller	-11.3145
▁stia	-11.3166
▁particolar	-11.3183
iniziativa	-11.3184
garibaldi	-11.3184
città	-11.3185
▁hell	-11.3186
▁beke	-11.3203
▁salon	-11.3204
astronom	-11.3205
▁pessim	-11.324
▁opportun	-11.3254
▁1200	-11.3269
▁suddett	-11.3276
▁apostoli	-11.3282
270	-11.3288
spetto	-11.3301
▁rimaste	-11.3304
▁angolare	-11.3306
▁artificiale	-11.3306
▁coinvolti	-11.3306
▁conquistò	-11.3306
▁elementare	-11.3306
▁gesuiti	-11.3306
▁guerriglie	-11.3306
▁innocenzo	-11.3306
▁molluschi	-11.3306
▁pseudo	-11.3306
▁rinascimento	-11.3306
▁anteriori	-11.3306
▁controversie	-11.3306
▁edificata	-11.3306
▁thunder	-11.3306
▁anhalt	-11.3306
▁brodeur	-11.3306
▁tournament	-11.3306
▁povertà	-11.3306
▁trionfo	-11.3306
▁islamica	-11.3306
▁occorre	-11.3306
▁scorpor	-11.3306
▁strategia	-11.3306
▁marziali	-11.3306
▁binocolo	-11.3306
▁combattimenti	-11.3306
▁espressioni	-11.3306
▁complotto	-11.3306
autovettur	-11.3306
▁apparso	-11.3306
▁cripta	-11.3306
▁opposta	-11.3306
▁abbassa	-11.3307
▁bosé	-11.3307
▁rozzano	-11.3307
▁quattrocento	-11.3307
▁riposo	-11.3307
▁caduti	-11.3307
▁decisioni	-11.3307
▁composte	-11.3307
▁avvale	-11.3307
chiedono	-11.3307
shaw	-11.3307
▁gemelli	-11.3307
▁gemelle	-11.3307
▁concorda	-11.3307
▁trascura	-11.3307
▁nervo	-11.3307
▁produsse	-11.3308
▁geografica	-11.3308
▁consulta	-11.3308
▁emilio	-11.3308
▁attratt	-11.3309
▁ritmi	-11.3309
orientamento	-11.3309
▁miami	-11.3309
▁elettronico	-11.3309
▁plastica	-11.331
▁proseguì	-11.331
▁1917	-11.3311
▁facilità	-11.3311
destinati	-11.3312
▁strisce	-11.3312
▁maggie	-11.3312
▁restaurazione	-11.3313
▁compete	-11.3314
▁creature	-11.3314
▁grossi	-11.3315
▁macchie	-11.3319
▁colorazione	-11.3319
▁concesse	-11.3323
▁tyr	-11.3324
▁marty	-11.3331
arsenal	-11.3334
chronolog	-11.3336
▁pericoloso	-11.3336
ugello	-11.3337
▁1815	-11.3339
▁emma	-11.3343
▁estese	-11.3344
▁opt	-11.3352
▁rappresentanza	-11.3353
adult	-11.3366
▁cooper	-11.3375
albergo	-11.3404
▁attuat	-11.3446
seguì	-11.345
insediamento	-11.3454
seguono	-11.3455
“	-11.3455
ovvero	-11.3455
quattro	-11.3455
enburg	-11.3489
▁cinquant	-11.35
▁paesaggi	-11.3501
▁patrizi	-11.3555
ambientazione	-11.3577
appropria	-11.3577
▁andarsene	-11.3577
▁centimetri	-11.3577
▁commemora	-11.3577
▁conflitti	-11.3577
▁corbezzolo	-11.3577
▁decepticon	-11.3577
▁gradualmente	-11.3577
▁liturgica	-11.3577
▁minnesota	-11.3577
▁primogenito	-11.3577
▁scomparso	-11.3577
▁sostituendo	-11.3577
▁sovietico	-11.3577
▁teatrali	-11.3577
▁tokugawa	-11.3577
▁bonciani	-11.3577
▁brindisi	-11.3577
▁incluse	-11.3577
▁sopporta	-11.3577
▁criminale	-11.3577
▁ginocchio	-11.3577
▁yacht	-11.3577
▁1902	-11.3577
▁fiamme	-11.3577
▁incoraggia	-11.3577
▁mōri	-11.3577
dimensional	-11.3577
▁kitty	-11.3577
▁spettro	-11.3577
▁enormi	-11.3577
▁croazia	-11.3577
annuncio	-11.3577
▁pearl	-11.3577
▁scoperti	-11.3577
▁clinica	-11.3577
▁1861	-11.3577
▁configurazione	-11.3577
▁riscatto	-11.3577
▁rinchius	-11.3577
▁ebraica	-11.3577
▁distinse	-11.3577
▁famose	-11.3577
▁riposa	-11.3577
▁consentito	-11.3578
▁demografica	-11.3578
▁apollo	-11.3578
▁sensibilità	-11.3579
▁sassonia	-11.3579
angiò	-11.3579
▁1904	-11.358
▁favorevoli	-11.358
▁caratteristico	-11.358
▁1922	-11.358
▁raggruppamento	-11.358
anonimo	-11.3581
▁ricopre	-11.3581
▁volterra	-11.3581
riccardo	-11.3581
▁1808	-11.3582
▁cammina	-11.3582
▁marcello	-11.3582
illuminazione	-11.3583
▁pratiche	-11.3583
▁stime	-11.3584
▁maledizione	-11.3586
▁anziano	-11.3587
▁barbara	-11.36
▁crolla	-11.3605
▁completamento	-11.3611
aderenza	-11.3613
▁horn	-11.3615
▁pietà	-11.3617
phyll	-11.362
biologi	-11.3625
▁vasil	-11.3651
apice	-11.3659
▁charge	-11.3662
▁support	-11.3665
assassinio	-11.3672
▁giovan	-11.3678
international	-11.3732
elemento	-11.3746
▁cut	-11.3755
▁leggendari	-11.3766
▁quarant	-11.3776
ennesim	-11.3777
intensità	-11.3813
tribuendo	-11.3849
▁retrocessi	-11.385
▁ribelli	-11.3851
▁accredita	-11.3854
▁bizantina	-11.3854
▁cadavere	-11.3854
▁categorie	-11.3854
▁costantinopoli	-11.3854
▁difficili	-11.3854
▁frequentò	-11.3854
▁investimenti	-11.3854
▁olimpico	-11.3854
▁ovunque	-11.3854
▁peculiari	-11.3854
▁polemiche	-11.3854
▁pomeriggio	-11.3854
▁risparmio	-11.3854
▁scientology	-11.3854
▁tassonomia	-11.3854
▁trasferita	-11.3854
esemplare	-11.3854
▁attentati	-11.3854
▁borghese	-11.3854
▁costituiva	-11.3854
▁coupé	-11.3854
▁deposita	-11.3854
▁protocollo	-11.3854
▁crazy	-11.3854
▁pasquale	-11.3854
▁costumi	-11.3854
▁bibbia	-11.3854
▁raggiunti	-11.3854
▁caparra	-11.3854
▁striscia	-11.3854
ostilità	-11.3854
▁colpì	-11.3854
▁vacanze	-11.3854
▁liquido	-11.3854
▁pilastri	-11.3854
iconografia	-11.3854
▁cappelle	-11.3854
▁funerale	-11.3854
▁espresse	-11.3854
▁kepler	-11.3854
▁spaventa	-11.3854
▁vacanza	-11.3854
▁organismi	-11.3854
▁rispose	-11.3855
▁affatto	-11.3855
▁delegati	-11.3855
▁imposto	-11.3855
▁evidenti	-11.3855
▁treviso	-11.3855
arbitro	-11.3855
▁riuniti	-11.3855
▁favorevole	-11.3855
▁governi	-11.3855
ambigua	-11.3855
▁ferrara	-11.3856
▁teorica	-11.3856
▁ribalta	-11.3856
▁diagnostic	-11.3856
▁spot	-11.3856
▁ceramica	-11.3857
▁tunisi	-11.3857
▁1906	-11.3859
▁impedisce	-11.3859
▁silver	-11.3859
▁anziani	-11.3859
▁personalmente	-11.386
▁massacro	-11.3863
▁sequel	-11.3865
▁agonistic	-11.3866
▁panini	-11.3866
▁apostolico	-11.3866
▁williamson	-11.3867
▁rinnovato	-11.3868
▁gioia	-11.3868
▁territoriali	-11.3868
vixen	-11.3872
aceae	-11.3873
▁crollo	-11.3873
▁jess	-11.3873
pacific	-11.388
aviazione	-11.3886
identificazione	-11.3903
▁benedic	-11.3937
▁soggett	-11.3941
▁approfondit	-11.3944
▁dubbi	-11.3959
▁rilasciat	-11.3965
▁rimpiazzat	-11.3972
▁spazz	-11.398
▁glan	-11.3987
walk	-11.3991
amicizia	-11.4018
elettro	-11.4018
▁inserir	-11.4029
▁approfond	-11.4047
▁favorit	-11.4067
▁concep	-11.4067
▁vivac	-11.4072
▁firm	-11.4074
▁inclin	-11.4091
2000	-11.4093
accompagn	-11.4133
▁diffusi	-11.4136
▁accorpato	-11.414
▁bizantino	-11.414
▁coachella	-11.414
▁coefficient	-11.414
▁jugoslavia	-11.414
▁osborn	-11.414
▁reliquie	-11.414
▁salmoneo	-11.414
▁sconosciuto	-11.414
▁specifiche	-11.414
▁successe	-11.414
▁svizzero	-11.414
▁sydney	-11.414
▁traguardo	-11.414
▁ykkönen	-11.414
hreppur	-11.414
▁chiunque	-11.414
▁herschel	-11.414
▁atlanta	-11.414
▁pasolini	-11.414
▁possedere	-11.414
▁censimento	-11.414
▁partigiani	-11.414
▁abbattut	-11.414
▁straniere	-11.414
▁guidò	-11.414
▁nikola	-11.414
▁radicale	-11.414
▁disposte	-11.414
▁curiosa	-11.414
▁brigata	-11.414
▁quadrati	-11.414
▁riteneva	-11.414
▁parroco	-11.414
▁dustin	-11.414
▁riserve	-11.414
▁punizione	-11.414
▁pesaro	-11.4141
▁consenso	-11.4141
▁fanteria	-11.4141
▁alimentat	-11.4141
▁caduto	-11.4141
immediato	-11.4141
▁scudo	-11.4141
▁ricorso	-11.4141
▁lamartine	-11.4141
▁sapeva	-11.4141
▁mentale	-11.4142
vivaldi	-11.4142
▁quantistica	-11.4142
▁punteggio	-11.4143
▁esaltat	-11.4143
▁teresa	-11.4143
▁sospetto	-11.4144
▁intermedia	-11.4145
▁importat	-11.4145
▁argomenti	-11.4147
▁cinta	-11.4147
▁confederazione	-11.4148
▁discendenti	-11.4148
▁merita	-11.4148
andrea	-11.4148
▁break	-11.4149
▁genetica	-11.4152
deposizione	-11.4152
▁grotte	-11.4152
▁dialetti	-11.4153
▁porterà	-11.4153
▁vendicarsi	-11.4154
▁parodi	-11.4154
▁berline	-11.4155
▁profonde	-11.4155
▁'60	-11.4158
▁pressioni	-11.4158
▁sabato	-11.4158
▁estivo	-11.4158
▁center	-11.4159
▁volendo	-11.416
▁esibirsi	-11.4162
▁goya	-11.4165
▁iscrive	-11.4172
ecw	-11.4194
▁incisi	-11.4212
▁patriot	-11.4213
▁analogi	-11.4217
alcool	-11.4219
▁manipol	-11.422
▁equipaggi	-11.4221
▁indizi	-11.4238
andarono	-11.4241
volontariamente	-11.4244
dificato	-11.4257
▁munit	-11.4266
▁sedic	-11.428
▁dimora	-11.4305
insegna	-11.4307
formula	-11.4313
cioè	-11.433
▁ognun	-11.4359
▁ferdinand	-11.4359
▁finalizzat	-11.438
▁holl	-11.4381
▁equivale	-11.4387
ischia	-11.4398
▁imperiali	-11.4416
coltura	-11.442
▁carrozze	-11.4431
arcidiocesi	-11.4434
ornithocheirus	-11.4434
▁accentua	-11.4434
▁bolognese	-11.4434
▁carabinieri	-11.4434
▁conosciute	-11.4434
▁finanziamento	-11.4434
▁giurisprudenza	-11.4434
▁irregolare	-11.4434
▁luminose	-11.4434
▁mutharika	-11.4434
▁necessita	-11.4434
▁ospedali	-11.4434
▁parrocchie	-11.4434
▁perpendicolar	-11.4434
▁prefettura	-11.4434
▁richelieu	-11.4434
▁sodalizio	-11.4434
▁sostenendo	-11.4434
▁moltiplica	-11.4434
▁pleiadi	-11.4434
▁ricognizione	-11.4434
▁thrall	-11.4434
▁collettivo	-11.4434
▁memorie	-11.4434
▁islamico	-11.4434
▁jacopo	-11.4434
▁rimarrà	-11.4434
▁marsiglia	-11.4434
▁sicilie	-11.4434
▁liquida	-11.4434
▁pulpito	-11.4434
▁requisit	-11.4434
▁caraibi	-11.4434
▁pignone	-11.4434
▁potenze	-11.4434
▁previste	-11.4434
▁cintura	-11.4434
▁polacco	-11.4434
▁public	-11.4434
▁suicida	-11.4434
heavy	-11.4435
▁indebol	-11.4435
▁nettamente	-11.4435
▁rurale	-11.4435
▁povero	-11.4435
▁preserva	-11.4435
▁regalo	-11.4435
▁amministrative	-11.4435
▁monache	-11.4435
▁dinamica	-11.4436
▁esauri	-11.4436
▁costiere	-11.4436
▁confida	-11.4437
▁justin	-11.4437
▁correlati	-11.4437
▁schiena	-11.4437
▁tessuti	-11.4437
▁alternative	-11.4438
▁1903	-11.4438
▁progett	-11.4438
▁nordorientale	-11.4439
▁sensibile	-11.444
▁ricoprir	-11.444
▁twin	-11.444
▁conteneva	-11.444
▁london	-11.4441
▁festeggiamenti	-11.4441
▁spettatore	-11.4441
▁progressivo	-11.4443
▁laziale	-11.4443
▁costiera	-11.4444
▁voluta	-11.4445
▁libere	-11.4446
▁bracci	-11.4447
▁leitha	-11.4448
▁creatura	-11.4448
▁gravità	-11.445
▁rally	-11.4451
▁saluta	-11.4453
▁abiti	-11.4454
▁processione	-11.4458
azzurri	-11.446
▁trauma	-11.4462
feder	-11.4478
▁satiri	-11.448
▁assegn	-11.4495
invenzione	-11.4495
▁brick	-11.4499
▁planetari	-11.4508
▁parecchi	-11.4513
▁scelt	-11.4516
▁percep	-11.4523
▁onori	-11.4586
▁svolt	-11.4587
▁eccett	-11.4598
guerra	-11.4601
statistiche	-11.4615
legenda	-11.4616
music	-11.4617
▁esegue	-11.464
▁commercializzat	-11.4659
▁allestit	-11.4729
▁discrimina	-11.4737
resurrezione	-11.4737
sovereign	-11.4737
▁1995-1996	-11.4737
▁1998-1999	-11.4737
▁discografico	-11.4737
▁draenor	-11.4737
▁etimologia	-11.4737
▁eventualmente	-11.4737
▁genovese	-11.4737
▁horror	-11.4737
▁imprenditori	-11.4737
▁maddalena	-11.4737
▁magazzino	-11.4737
▁medievali	-11.4737
▁olimpica	-11.4737
▁parlamentari	-11.4737
▁prolungamento	-11.4737
▁raccolti	-11.4737
▁risonanza	-11.4737
▁rousseau	-11.4737
▁soddisfar	-11.4737
▁spettrale	-11.4737
▁vernadskij	-11.4737
▁vladimir	-11.4737
histoire	-11.4737
▁aggiunte	-11.4737
▁comprendono	-11.4737
▁hitler	-11.4737
▁pignatelli	-11.4737
▁playstation	-11.4737
▁suburban	-11.4737
ubicazione	-11.4737
▁giungono	-11.4737
▁automatico	-11.4737
▁wallace	-11.4737
▁capeside	-11.4737
▁cedette	-11.4737
▁dorsale	-11.4737
▁testimone	-11.4737
▁blocchi	-11.4737
▁preziosi	-11.4737
▁pioggia	-11.4737
▁nicchie	-11.4737
▁fossili	-11.4737
▁polacca	-11.4737
▁polacchi	-11.4737
adiacente	-11.4737
▁transizione	-11.4738
▁offerte	-11.4738
▁marcantonio	-11.4738
▁sentimento	-11.4738
▁bowlby	-11.4738
▁reclam	-11.4738
▁tollera	-11.4738
▁vocazione	-11.4738
▁foreman	-11.4738
orgoglio	-11.4738
▁candidatura	-11.4738
▁deutsch	-11.4738
▁vapore	-11.4738
▁bagagli	-11.4738
▁israele	-11.4739
▁bergamo	-11.4739
▁povera	-11.4739
▁duecento	-11.4739
aggiornata	-11.474
▁diventerà	-11.474
▁liguri	-11.474
▁catene	-11.474
▁gustav	-11.474
▁transetto	-11.474
▁lieve	-11.4741
▁shock	-11.4741
▁reddito	-11.4741
▁distanze	-11.4741
▁accumula	-11.4742
▁sergente	-11.4742
▁crociata	-11.4744
▁agnese	-11.4744
▁tematiche	-11.4744
▁gurk	-11.4744
▁colleghi	-11.4744
▁taglio	-11.4745
▁potendo	-11.4745
▁austro	-11.4746
▁grossa	-11.4746
▁viaggiatori	-11.4747
▁perduta	-11.4748
▁sultano	-11.4749
▁kurt	-11.475
▁coglie	-11.4754
▁todd	-11.4758
adorazione	-11.4767
▁riorganizz	-11.4768
fried	-11.4782
▁rappresent	-11.4786
pittal	-11.4802
▁collision	-11.4814
▁omosessuali	-11.4817
offrì	-11.4822
▁rettili	-11.4859
boot	-11.486
scritta	-11.4871
▁affid	-11.4899
interpreta	-11.4923
house	-11.4929
argentina	-11.493
nuova	-11.4931
▁risent	-11.4961
▁professionistic	-11.5004
▁cattedra	-11.5017
▁discende	-11.5034
▁esplos	-11.5034
algoritmo	-11.505
antartide	-11.505
avanguardia	-11.505
▁1997-1998	-11.505
▁anthony	-11.505
▁appartenut	-11.505
▁assomiglia	-11.505
▁bulgari	-11.505
▁cioccolato	-11.505
▁circoscrizione	-11.505
▁finlandese	-11.505
▁flagello	-11.505
▁hemingway	-11.505
▁larghezza	-11.505
▁lussemburgo	-11.505
▁matematico	-11.505
▁meccanismo	-11.505
▁mediterranea	-11.505
▁monsignor	-11.505
▁montoneros	-11.505
▁propulsore	-11.505
▁recensioni	-11.505
▁rettangolare	-11.505
▁riconosciuta	-11.505
▁scientifici	-11.505
▁sentimental	-11.505
▁shakespeare	-11.505
▁societario	-11.505
▁sopravvissuti	-11.505
▁timoleonte	-11.505
▁vendute	-11.505
▁cittadine	-11.505
▁incarichi	-11.505
▁periferia	-11.505
▁christoph	-11.505
▁tournée	-11.505
▁architettonici	-11.505
▁briganti	-11.505
▁cecilia	-11.505
▁centauri	-11.505
▁galassie	-11.505
▁marittima	-11.505
▁pixel	-11.505
▁riusciva	-11.505
▁cronologia	-11.505
▁gallura	-11.505
▁howard	-11.505
▁verticali	-11.505
▁destinate	-11.505
▁discreto	-11.505
▁mosaico	-11.505
▁circolazione	-11.505
rosenborg	-11.505
▁servì	-11.505
▁manuel	-11.505
▁kansas	-11.505
▁1882	-11.505
▁formò	-11.505
▁sassari	-11.505
▁teorico	-11.505
▁affetto	-11.505
▁revisione	-11.505
adeguata	-11.505
▁foggia	-11.505
▁boeing	-11.505
▁pluto	-11.505
▁mescola	-11.505
▁esperto	-11.5051
attaccamento	-11.5051
▁minerari	-11.5051
▁emissioni	-11.5051
▁circostanti	-11.5051
autostrada	-11.5051
▁intenso	-11.5051
▁distretti	-11.5051
▁rivoluzionario	-11.5051
▁perugia	-11.5051
▁esplicitamente	-11.5051
▁calcare	-11.5052
▁seconde	-11.5052
▁competenze	-11.5052
▁estratti	-11.5052
▁adulta	-11.5052
▁stampe	-11.5052
▁rinnovamento	-11.5052
▁dittatura	-11.5053
▁compongono	-11.5053
▁nuoto	-11.5054
▁lodate	-11.5054
▁distacca	-11.5054
▁inedito	-11.5054
▁corinzi	-11.5055
▁ricostruire	-11.5055
▁aeree	-11.5055
▁raduna	-11.5055
▁goltana	-11.5055
▁significativi	-11.5057
▁bowl	-11.5058
▁drammatica	-11.5058
▁decorata	-11.5058
▁from	-11.506
ispettore	-11.5061
allevamento	-11.5062
▁radar	-11.5073
▁benedit	-11.5081
seguendo	-11.5083
▁wild	-11.5088
▁indirizzat	-11.5089
▁approcci	-11.5095
attribuzione	-11.5108
tenenti	-11.5115
▁garantit	-11.5116
cultura	-11.5122
▁promise	-11.5124
▁drastic	-11.5124
▁situat	-11.5125
alessandria	-11.5155
tropic	-11.5235
tendente	-11.524
▁investiga	-11.5245
miglior	-11.5253
▁traffic	-11.5294
▁telescopi	-11.5297
rolling	-11.5301
appunto	-11.5332
▁precede	-11.535
▁coperti	-11.5357
attaccante	-11.5369
dragon	-11.5372
montepescali	-11.5372
▁afroamerican	-11.5372
▁capolavori	-11.5372
▁capolavoro	-11.5372
▁corrispondono	-11.5372
▁festività	-11.5372
▁gauguin	-11.5372
▁incomincia	-11.5372
▁limitrof	-11.5372
▁meccanici	-11.5372
▁navarra	-11.5372
▁piattaforme	-11.5372
▁predecessore	-11.5372
▁procedure	-11.5372
▁propaganda	-11.5372
▁raccolto	-11.5372
▁sarcofag	-11.5372
▁scrittrice	-11.5372
▁simboleggia	-11.5372
▁sospensione	-11.5372
▁springfield	-11.5372
▁strategica	-11.5372
▁televisivi	-11.5372
▁ugualmente	-11.5372
▁vietnam	-11.5372
▁biennale	-11.5372
▁cristallo	-11.5372
▁decapita	-11.5372
▁esposizioni	-11.5372
▁poliziotto	-11.5372
▁spoglie	-11.5372
▁hommes	-11.5372
▁manchester	-11.5372
▁morosini	-11.5372
▁renault	-11.5372
▁istituti	-11.5372
▁tunnel	-11.5372
▁radiazioni	-11.5372
▁tredicesim	-11.5372
▁commessi	-11.5372
▁fiandre	-11.5372
▁montesanto	-11.5372
▁stuart	-11.5372
impostazione	-11.5372
▁rifiuti	-11.5372
▁comunali	-11.5372
▁sfocia	-11.5372
▁traghetti	-11.5372
▁reggimento	-11.5372
▁frammento	-11.5373
▁parametri	-11.5373
▁year	-11.5373
▁elevati	-11.5373
▁ebraico	-11.5373
▁previsti	-11.5373
▁nomadi	-11.5373
▁violini	-11.5373
▁morandi	-11.5373
▁cognato	-11.5373
▁osaka	-11.5373
▁christian	-11.5373
▁diluvio	-11.5373
▁bizzarr	-11.5373
▁friulan	-11.5373
▁ancona	-11.5373
▁assistito	-11.5373
▁sedute	-11.5373
▁consensi	-11.5373
▁rinvenuti	-11.5373
infinito	-11.5373
▁sapore	-11.5374
▁illidan	-11.5374
▁antinea	-11.5374
▁rigori	-11.5374
▁spiagge	-11.5374
▁scudi	-11.5374
▁terrorismo	-11.5374
▁viceré	-11.5375
▁vocale	-11.5375
▁sierra	-11.5375
▁certezza	-11.5375
▁immers	-11.5376
▁specializzato	-11.5377
▁plate	-11.5377
▁ottomani	-11.5377
▁legione	-11.5377
▁candidati	-11.5378
▁avveniva	-11.5378
▁express	-11.5379
▁mattino	-11.5382
worth	-11.5386
▁promotor	-11.5388
unitario	-11.5389
▁loggia	-11.5392
▁teneva	-11.5401
▁fungo	-11.5404
vicario	-11.5419
esibizione	-11.5434
▁autonomi	-11.5435
▁soppress	-11.544
famiglia	-11.5448
what	-11.5483
complessivamente	-11.5526
▁lanka	-11.553
▁elaborat	-11.5536
autorizzazione	-11.5546
▁aprir	-11.5551
▁elettrici	-11.5577
europeo	-11.5584
deadpool	-11.5584
calcio	-11.5588
▁esponent	-11.5599
▁fidanza	-11.5615
▁riscontr	-11.5632
tributo	-11.564
▁teologi	-11.5672
armonica	-11.5681
argill	-11.5684
apporto	-11.5705
▁automaticamente	-11.5706
▁avventurieri	-11.5706
▁birmania	-11.5706
▁catherine	-11.5706
▁douglas	-11.5706
▁erroneamente	-11.5706
▁iscrisse	-11.5706
▁luogotenente	-11.5706
▁orizzontali	-11.5706
▁principato	-11.5706
▁proporzional	-11.5706
▁raggiungibile	-11.5706
▁rinascita	-11.5706
▁rinforzi	-11.5706
▁riscuote	-11.5706
▁solidarietà	-11.5706
▁toyotomi	-11.5706
▁uesugi	-11.5706
▁gravidanza	-11.5706
▁riconobbe	-11.5706
▁sepolcro	-11.5706
▁bolzano	-11.5706
▁indigeni	-11.5706
▁marittimo	-11.5706
▁regular	-11.5706
▁direttrice	-11.5706
▁knight	-11.5706
▁matilde	-11.5706
▁occult	-11.5706
aggressiv	-11.5706
▁commestibil	-11.5706
▁fianchi	-11.5706
▁notorietà	-11.5706
▁parallelo	-11.5706
▁indiretta	-11.5706
▁pallavolo	-11.5706
billboard	-11.5706
inquinamento	-11.5706
▁contenute	-11.5706
▁takeda	-11.5706
abbigliamento	-11.5706
▁felton	-11.5706
armistizio	-11.5706
▁compilation	-11.5706
▁boemia	-11.5706
▁oscilla	-11.5706
▁rockies	-11.5706
orologio	-11.5706
▁sormontat	-11.5706
▁ristabili	-11.5706
▁lignea	-11.5706
▁ravenna	-11.5706
▁sottili	-11.5706
▁little	-11.5706
▁barocco	-11.5706
▁dolci	-11.5706
▁fertili	-11.5706
▁devozione	-11.5706
▁ricostruito	-11.5706
▁scherma	-11.5707
▁evoluti	-11.5707
▁comandi	-11.5707
▁arcate	-11.5708
▁calcistico	-11.5708
▁battesimo	-11.5709
▁mangos	-11.571
▁distacco	-11.571
▁pianoforte	-11.571
▁drew	-11.571
▁compatibili	-11.5711
▁respira	-11.5712
▁ogre	-11.5716
▁traversa	-11.5717
martirio	-11.5719
esclusione	-11.5739
▁arcaic	-11.5746
rancho	-11.5756
esploratore	-11.5798
nathan	-11.5801
eremo	-11.5813
▁cardinal	-11.5823
▁aggreg	-11.5834
sandro	-11.586
immens	-11.5869
bourg	-11.5897
immagina	-11.5927
louis	-11.5929
francese	-11.5929
sistema	-11.5931
ntrarono	-11.5963
▁infortuni	-11.5975
▁battezzat	-11.6021
▁retrocede	-11.6044
massachusetts	-11.605
positronio	-11.605
▁anfitea	-11.605
▁approssimativa	-11.605
▁bersaglio	-11.605
▁bibliografia	-11.605
▁bielorussia	-11.605
▁cappuccini	-11.605
▁carburante	-11.605
▁conseguito	-11.605
▁consorzio	-11.605
▁doppietta	-11.605
▁guerriglia	-11.605
▁hideyoshi	-11.605
▁introdusse	-11.605
▁mokujin	-11.605
▁montalembert	-11.605
▁reciproca	-11.605
▁referendum	-11.605
▁riconducibil	-11.605
▁ridisegna	-11.605
▁rinunciò	-11.605
▁sembianze	-11.605
▁siracusa	-11.605
▁sostituto	-11.605
▁squadriglia	-11.605
▁svolgimento	-11.605
▁tranquilla	-11.605
▁violento	-11.605
▁wrestler	-11.605
▁quotidiani	-11.605
▁virtuos	-11.605
html	-11.605
insurrezione	-11.605
▁minerali	-11.605
▁proporzioni	-11.605
▁ringrazia	-11.605
▁scozzese	-11.605
▁vickie	-11.605
▁padrone	-11.605
▁retrocesse	-11.605
▁oxford	-11.605
umidità	-11.605
▁samuel	-11.605
▁suicidio	-11.605
▁rifaciment	-11.6051
▁scolastico	-11.6051
▁uguali	-11.6051
▁benzina	-11.6051
▁telefono	-11.6051
imminente	-11.6051
▁gallery	-11.6051
▁squalo	-11.6051
▁circolari	-11.6051
▁cristianesimo	-11.6051
▁ministeri	-11.6051
▁coalizione	-11.6051
▁fiscale	-11.6051
▁arricchit	-11.6051
▁disloca	-11.6051
▁margaret	-11.6051
▁chiostro	-11.6051
▁suppone	-11.6051
▁rurali	-11.6051
▁acustico	-11.6051
▁illustri	-11.6051
▁tattica	-11.6051
▁creek	-11.6051
▁rigido	-11.6051
▁oppone	-11.6051
▁iacp	-11.6051
▁rimozione	-11.6051
▁supernova	-11.6051
▁accessibile	-11.6051
▁simmetria	-11.6052
▁dotazione	-11.6052
▁restò	-11.6052
▁ricoverat	-11.6052
▁chiodo	-11.6052
▁supremazia	-11.6053
▁dèi	-11.6053
▁cosmos	-11.6053
▁sentinel	-11.6054
avvenimento	-11.6054
▁nebbi	-11.6055
▁martire	-11.6055
▁vinile	-11.6055
▁dennis	-11.6056
▁perdute	-11.6057
▁resuscit	-11.6057
attrazione	-11.606
▁mantova	-11.6061
▁insetti	-11.6062
▁storm	-11.6063
sentiero	-11.6065
▁stringe	-11.6067
▁laguna	-11.6067
epilogo	-11.6068
esigenz	-11.6072
unificazione	-11.6072
pastor	-11.6078
▁distrusse	-11.6087
ocle	-11.6096
llusioni	-11.6115
atleta	-11.6131
series	-11.6186
ceduta	-11.6186
fondere	-11.619
glielo	-11.6253
invito	-11.6259
annunciazione	-11.6268
rivoluzionari	-11.6275
osservazione	-11.6286
simca	-11.6289
abito	-11.6289
inferno	-11.6305
▁possied	-11.6347
▁decedut	-11.6362
▁stern	-11.6371
▁sostituisc	-11.6372
▁francis	-11.6398
eccessiva	-11.6403
▁felici	-11.6405
hospital	-11.6408
▁2000-2001	-11.6408
▁2002-2003	-11.6408
▁academy	-11.6408
▁accidentalmente	-11.6408
▁beckett	-11.6408
▁berlusconi	-11.6408
▁coinvolgimento	-11.6408
▁comprensione	-11.6408
▁confessione	-11.6408
▁consecutiva	-11.6408
▁cybertron	-11.6408
▁impossessa	-11.6408
▁intellettuali	-11.6408
▁longobardi	-11.6408
▁luminoso	-11.6408
▁massicce	-11.6408
▁montréal	-11.6408
▁nebuloso	-11.6408
▁ospitò	-11.6408
▁pianeggiante	-11.6408
▁ricoprì	-11.6408
▁sargeras	-11.6408
▁sopravvissuto	-11.6408
▁ucraini	-11.6408
▁venerdì	-11.6408
▁circostanza	-11.6408
▁padrona	-11.6408
▁sacrificio	-11.6408
▁smantella	-11.6408
▁sommità	-11.6408
▁toponimo	-11.6408
▁aumentò	-11.6408
▁business	-11.6408
▁colonizzazione	-11.6408
▁poltrone	-11.6408
▁stipulat	-11.6408
▁accoppia	-11.6408
▁rilievi	-11.6408
▁dialoghi	-11.6408
▁motivazioni	-11.6408
▁platino	-11.6408
▁architettonica	-11.6408
▁ritenere	-11.6408
▁society	-11.6408
dangerous	-11.6408
▁sostanze	-11.6408
▁blood	-11.6408
▁commenda	-11.6408
▁kingpin	-11.6408
▁becky	-11.6408
▁interviste	-11.6408
▁lontani	-11.6408
▁urbane	-11.6408
illusione	-11.6408
▁prefetto	-11.6408
▁ascanio	-11.6408
▁demolizione	-11.6408
▁pensione	-11.6408
▁possedut	-11.6408
▁selvaggia	-11.6408
▁visconte	-11.6408
▁dipinse	-11.6408
▁ammonta	-11.6408
▁invernale	-11.6408
▁sottostante	-11.6408
▁precoce	-11.6408
atalanta	-11.6408
▁diavolo	-11.6408
▁sceneggiatore	-11.6408
▁arrende	-11.6409
▁cameron	-11.6409
▁emerson	-11.6409
▁tumore	-11.6409
▁deboli	-11.6409
▁impersona	-11.6409
▁vasari	-11.6409
▁title	-11.6409
▁rinvenuto	-11.6409
serien	-11.6409
▁tormenta	-11.6409
▁ncaa	-11.6409
▁jessica	-11.641
▁fronteggiar	-11.641
▁seduto	-11.641
▁romantica	-11.641
▁mentali	-11.641
▁arresti	-11.641
▁aspettative	-11.641
▁penalizza	-11.6411
▁ghiacciai	-11.6411
▁giudici	-11.6411
episcop	-11.6411
▁osman	-11.6411
▁avvenuti	-11.6412
▁sporge	-11.6412
▁varese	-11.6413
▁sanada	-11.6414
▁pianificat	-11.6415
▁communi	-11.6416
▁inganna	-11.6421
▁ritrae	-11.6421
▁allude	-11.6428
▁converge	-11.6431
▁krist	-11.6432
▁impront	-11.6434
week	-11.6436
▁primitiv	-11.644
body	-11.6442
pendici	-11.6451
imitazione	-11.6454
▁avvelena	-11.6462
staffetta	-11.6468
▁ereditat	-11.6473
uccisione	-11.6477
▁foot	-11.6485
▁saccheggi	-11.6486
▁incarna	-11.6519
innamor	-11.6522
concert	-11.6553
obbligo	-11.6575
▁posizionat	-11.659
▁finanziar	-11.6634
▁estremi	-11.6646
▁attribuisc	-11.6647
trariamente	-11.6651
appuntamento	-11.6656
aspetta	-11.6656
soprattutto	-11.6657
possibilità	-11.6663
cloro	-11.6688
indirizzo	-11.6701
▁vissut	-11.6706
87)	-11.6713
assassino	-11.6736
elaborazione	-11.6757
▁aggiudic	-11.6766
inseriment	-11.6774
schmidt	-11.6778
▁affrescat	-11.6778
▁alexander	-11.6778
▁amsterdam	-11.6778
▁brasiliano	-11.6778
▁brøndby	-11.6778
▁chibichibi	-11.6778
▁coinvolta	-11.6778
▁decisiva	-11.6778
▁dedekind	-11.6778
▁detective	-11.6778
▁gherardesca	-11.6778
▁ginnastica	-11.6778
▁immigrati	-11.6778
▁incursioni	-11.6778
▁innumerevoli	-11.6778
▁irlandesi	-11.6778
▁latitudini	-11.6778
▁momentaneamente	-11.6778
▁napoletana	-11.6778
▁nickelodeon	-11.6778
▁pellegrini	-11.6778
▁quotidiana	-11.6778
▁religioni	-11.6778
▁reputazione	-11.6778
▁riconoscibile	-11.6778
crocifissione	-11.6778
efficienza	-11.6778
oscurità	-11.6778
▁libretto	-11.6778
▁norður	-11.6778
▁padroni	-11.6778
▁rilascio	-11.6778
▁scherzo	-11.6778
intelligenza	-11.6778
▁congiunta	-11.6778
▁filosofo	-11.6778
▁retrocessa	-11.6778
▁sospetti	-11.6778
▁antropica	-11.6778
▁velletri	-11.6778
annessione	-11.6778
▁gerarchia	-11.6778
▁ambasciatori	-11.6778
▁darfus	-11.6778
▁northern	-11.6778
▁olandesi	-11.6778
▁violente	-11.6778
▁quadrato	-11.6778
▁scolastica	-11.6778
▁brigate	-11.6778
▁lynch	-11.6778
▁crimine	-11.6778
▁frattura	-11.6778
▁ricalca	-11.6778
▁ercole	-11.6778
▁fluido	-11.6778
▁pantalon	-11.6778
▁campania	-11.6778
▁ritenendo	-11.6778
▁sollecita	-11.6778
▁trionfa	-11.6778
▁costruttore	-11.6778
▁sfiora	-11.6778
▁toscano	-11.6778
▁battute	-11.6778
▁jeffrey	-11.6778
▁meditazione	-11.6778
▁anfibi	-11.6778
interfaccia	-11.6778
▁nicchia	-11.6778
shogun	-11.6778
▁finanze	-11.6778
▁pepper	-11.6778
▁conquiste	-11.6778
▁spunto	-11.6778
▁patriarca	-11.6779
▁prolungat	-11.6779
infrastruttura	-11.6779
▁hanuman	-11.6779
▁vettori	-11.6779
▁psicoanalisi	-11.6779
altopiano	-11.6779
▁desert	-11.6779
▁oscure	-11.6779
▁scheda	-11.678
▁lagash	-11.6781
élite	-11.6782
▁listino	-11.6782
▁ribella	-11.6782
▁subiti	-11.6783
▁umma	-11.6783
▁ostile	-11.6783
▁proveniva	-11.6783
batman	-11.6785
▁avvolt	-11.679
▁flame	-11.6798
▁coniat	-11.6816
▁celtic	-11.6821
migrato	-11.6822
100.000	-11.6833
▁votat	-11.6853
▁designat	-11.6861
▁conferisc	-11.6869
▁boom	-11.6873
orecchio	-11.6879
allarme	-11.6915
▁cassett	-11.6999
comandante	-11.7041
venezia	-11.7041
persona	-11.7057
▁emigr	-11.7061
aids	-11.7068
espert	-11.7093
▁centinai	-11.7094
histori	-11.7138
▁squali	-11.7162
immacolata	-11.7163
pennsylvania	-11.7163
▁aggiungono	-11.7163
▁bizantini	-11.7163
▁centrocampista	-11.7163
▁circumpolare	-11.7163
▁contemporaneo	-11.7163
▁cortometraggi	-11.7163
▁costituente	-11.7163
▁fabbriche	-11.7163
▁guerrino	-11.7163
▁heinrich	-11.7163
▁hershey	-11.7163
▁innanzitutto	-11.7163
▁interdentale	-11.7163
▁interscambi	-11.7163
▁irregolari	-11.7163
▁legislazione	-11.7163
▁legittima	-11.7163
▁liturgico	-11.7163
▁nebulose	-11.7163
▁nordiques	-11.7163
▁nucleari	-11.7163
▁opinioni	-11.7163
▁princeton	-11.7163
▁research	-11.7163
▁riconferma	-11.7163
▁sconvolta	-11.7163
▁sévigné	-11.7163
▁taylor	-11.7163
▁tripletta	-11.7163
▁vancouver	-11.7163
▁arruola	-11.7163
▁guelfa	-11.7163
▁meccanico	-11.7163
▁municipalità	-11.7163
▁poliziotti	-11.7163
▁pompei	-11.7163
▁raymond	-11.7163
▁agricole	-11.7163
▁peperino	-11.7163
▁quadrata	-11.7163
▁riferirsi	-11.7163
▁riscalda	-11.7163
▁gelosia	-11.7163
▁ripropost	-11.7163
▁gioielli	-11.7163
▁cooperativo	-11.7163
▁invasori	-11.7163
▁arthur	-11.7163
▁kazama	-11.7163
▁correttamente	-11.7163
▁rebecca	-11.7163
▁ubaldo	-11.7163
▁toscani	-11.7163
▁innocenti	-11.7163
ossigeno	-11.7163
▁prezioso	-11.7163
▁tornerà	-11.7163
▁enlil	-11.7163
▁tiziano	-11.7163
▁clausol	-11.7163
▁fortunatamente	-11.7163
▁riscatta	-11.7163
▁secolari	-11.7163
▁mozart	-11.7163
▁taverna	-11.7163
▁concomitan	-11.7163
▁colombo	-11.7163
▁attrezzature	-11.7163
▁ridotte	-11.7163
▁fotografa	-11.7163
complicated	-11.7163
▁singole	-11.7163
▁rigida	-11.7163
▁tragitto	-11.7163
▁consacrata	-11.7163
innocenza	-11.7164
▁cesena	-11.7164
▁contrappost	-11.7164
▁distrutti	-11.7164
▁dignità	-11.7164
▁marocco	-11.7164
▁farmaco	-11.7164
▁klein	-11.7164
▁organigramma	-11.7164
▁materie	-11.7164
▁quebec	-11.7165
▁kyle	-11.7165
▁annibale	-11.7165
▁accosta	-11.7166
▁addestrati	-11.7166
▁foglia	-11.7167
adesione	-11.7168
▁oliver	-11.7171
▁siberia	-11.7172
▁waters	-11.7174
▁sinonim	-11.7181
omolog	-11.7187
▁effettu	-11.7199
immigrazione	-11.7212
▁sorrett	-11.7222
petrarca	-11.7246
▁riunir	-11.7256
inviati	-11.7262
inclinazione	-11.7272
cedono	-11.7293
assegnazione	-11.7298
▁bombe	-11.7321
▁sostituit	-11.7323
editoria	-11.7332
▁metodologi	-11.7356
▁economi	-11.7429
black	-11.7442
estrema	-11.7443
▁antonell	-11.7443
formalmente	-11.7471
▁esercizi	-11.7487
▁devil	-11.7524
migrazione	-11.7526
▁recit	-11.7554
▁raggruppa	-11.7557
▁confedera	-11.7558
▁capaci	-11.756
universit	-11.7562
▁klagenfurt	-11.7563
#	-11.7563
irrazional	-11.7563
orhynchus	-11.7563
▁2004-2005	-11.7563
▁allucinazioni	-11.7563
▁amministrazioni	-11.7563
▁appartengono	-11.7563
▁bundesliga	-11.7563
▁cancelliere	-11.7563
▁chakram	-11.7563
▁espulso	-11.7563
▁giuridico	-11.7563
▁grottaferrata	-11.7563
▁guarnigione	-11.7563
▁hōjō	-11.7563
▁lituania	-11.7563
▁locomotive	-11.7563
▁magazine	-11.7563
▁nietzsche	-11.7563
▁pellegrinaggi	-11.7563
▁periferiche	-11.7563
▁residenziale	-11.7563
▁riconosciute	-11.7563
▁rowdies	-11.7563
▁rutebeuf	-11.7563
▁sampdoria	-11.7563
▁semplifica	-11.7563
▁settentrionali	-11.7563
▁sufficienti	-11.7563
landshut	-11.7563
▁eiffel	-11.7563
▁elettromagnetic	-11.7563
▁eseguite	-11.7563
▁joubert	-11.7563
▁lapidazione	-11.7563
▁lisbona	-11.7563
▁miniserie	-11.7563
▁preesistente	-11.7563
▁chilometro	-11.7563
▁liturgia	-11.7563
▁rallenta	-11.7563
▁riacquista	-11.7563
▁riconcili	-11.7563
▁riprodott	-11.7563
▁splendid	-11.7563
▁stabilmente	-11.7563
▁diciannove	-11.7563
▁namibia	-11.7563
▁vassallo	-11.7563
▁duchessa	-11.7563
▁segunda	-11.7563
ambrogio	-11.7563
▁fuggì	-11.7563
▁tropicali	-11.7563
▁wwf	-11.7563
▁distinzione	-11.7563
atterraggio	-11.7563
▁custode	-11.7563
▁soccorsi	-11.7563
▁salvataggio	-11.7563
etiopia	-11.7563
zhul	-11.7563
▁ripensa	-11.7563
▁scalinata	-11.7563
▁capodanno	-11.7563
▁inutilmente	-11.7563
▁compenso	-11.7563
▁bonnet	-11.7563
▁corporazioni	-11.7563
▁stemmi	-11.7563
▁molecole	-11.7563
▁milizia	-11.7563
▁siviglia	-11.7563
▁santiago	-11.7563
▁futsal	-11.7563
▁superstiti	-11.7563
▁libreri	-11.7563
▁gettoni	-11.7563
dizionario	-11.7563
▁polinomi	-11.7563
▁gomma	-11.7563
greatest	-11.7563
▁teatri	-11.7563
reginetta	-11.7563
▁celesti	-11.7563
▁nemica	-11.7563
▁polvere	-11.7564
▁rigidi	-11.7564
▁malawi	-11.7564
▁achille	-11.7564
▁parcheggi	-11.7564
www	-11.7564
▁reggino	-11.7564
▁rivolse	-11.7565
▁tramonto	-11.7565
▁deuce	-11.7565
▁schemi	-11.7565
▁appariva	-11.7567
▁1863	-11.7569
▁sorregg	-11.7583
▁botanic	-11.7585
▁addett	-11.7602
▁relegat	-11.7618
algeria	-11.763
▁erotic	-11.7656
infezione	-11.7657
63)	-11.7673
annesso	-11.7683
▁ventott	-11.7707
accelerazione	-11.7709
▁spieg	-11.7794
▁rifugi	-11.78
avanzata	-11.7857
ispirazione	-11.7857
luigi	-11.7859
▁bacin	-11.7867
▁laboratori	-11.7904
istruttore	-11.7908
civil	-11.7962
▁metropoli	-11.7971
ccessivamente	-11.7973
▁groenland	-11.7976
afghanistan	-11.7979
annunziata	-11.7979
apocalisse	-11.7979
trøndelag	-11.7979
▁1993-1994	-11.7979
▁1996-1997	-11.7979
▁2001-2002	-11.7979
▁abitudini	-11.7979
▁addormentat	-11.7979
▁architettoniche	-11.7979
▁beoulve	-11.7979
▁borghesia	-11.7979
▁cosicché	-11.7979
▁difensivo	-11.7979
▁elicotteri	-11.7979
▁geometria	-11.7979
▁goffredo	-11.7979
▁gpws	-11.7979
▁harkonnen	-11.7979
▁lamotrigina	-11.7979
▁lauderdale	-11.7979
▁lombarda	-11.7979
▁lordaeron	-11.7979
▁martín	-11.7979
▁periferica	-11.7979
▁polisportiva	-11.7979
▁pregiudizi	-11.7979
▁preliminare	-11.7979
▁racchiude	-11.7979
▁raccolse	-11.7979
▁riconosciuti	-11.7979
▁rinforza	-11.7979
▁roosevelt	-11.7979
▁sfuggire	-11.7979
▁sorveglianza	-11.7979
▁sospensioni	-11.7979
▁suggestion	-11.7979
▁trasferiti	-11.7979
▁trudy	-11.7979
▁zagabria	-11.7979
▁ōuchi	-11.7979
republi	-11.7979
▁analoghe	-11.7979
▁aurigae	-11.7979
▁bavarese	-11.7979
▁incapace	-11.7979
▁brooks	-11.7979
▁deportivo	-11.7979
▁nascoste	-11.7979
▁potenzialità	-11.7979
▁provvist	-11.7979
▁1857	-11.7979
▁esposte	-11.7979
▁straniero	-11.7979
▁fantasia	-11.7979
▁jerry	-11.7979
▁dracula	-11.7979
▁infraross	-11.7979
▁supremo	-11.7979
▁salvò	-11.7979
abilitazione	-11.7979
▁peaks	-11.7979
▁presiedut	-11.7979
▁segrete	-11.7979
cinematografiche	-11.7979
▁vergante	-11.7979
▁inevitabil	-11.7979
▁rituale	-11.7979
▁sciolse	-11.7979
▁proporre	-11.7979
▁barnaba	-11.7979
▁umilia	-11.7979
emittente	-11.7979
▁paraurti	-11.7979
▁sentieri	-11.798
▁utair	-11.798
▁vicepresidente	-11.798
▁follia	-11.798
▁zagato	-11.798
▁acustica	-11.798
▁presidenziali	-11.798
▁affetti	-11.798
▁nichol	-11.798
▁confisca	-11.798
▁rievoca	-11.798
▁annessa	-11.798
▁pluri	-11.798
▁sacmi	-11.798
▁concorde	-11.798
▁capeggiat	-11.798
▁feroce	-11.798
▁vegas	-11.798
capital	-11.7981
missouri	-11.7981
▁camerier	-11.7981
▁oppose	-11.7981
▁pregevol	-11.7982
lexandr	-11.7982
umbria	-11.7984
▁bonifica	-11.7984
▁teorizz	-11.7987
▁registi	-11.7988
▁collegiat	-11.7989
acronim	-11.799
▁restrizion	-11.7992
pascoli	-11.8001
entroterra	-11.8003
▁lionel	-11.8026
possibil	-11.8035
▁conferir	-11.804
▁ronald	-11.8073
▁intrappolat	-11.8088
individuazione	-11.8093
information	-11.8118
piazza	-11.8144
harmoni	-11.8151
essenza	-11.8155
3.0	-11.8167
▁lavorativ	-11.8227
▁rimpiazz	-11.8232
▁suscit	-11.8241
▁classific	-11.825
▁nautic	-11.828
dipendentemente	-11.8286
apparizione	-11.8292
società	-11.8293
ancora	-11.8295
hilde	-11.8321
▁leonard	-11.834
innovazione	-11.8358
illumina	-11.8387
▁declina	-11.8404
censione	-11.8405
duttori	-11.8411
economic	-11.8412
▁1992-1993	-11.8414
▁1994-1995	-11.8414
▁2003-2004	-11.8414
▁approvò	-11.8414
▁appunti	-11.8414
▁architetture	-11.8414
▁atteggiamenti	-11.8414
▁blondie	-11.8414
▁bonifacio	-11.8414
▁borbonica	-11.8414
▁brunswick	-11.8414
▁budget	-11.8414
▁canadesi	-11.8414
▁consuetudin	-11.8414
▁cresciuta	-11.8414
▁culmine	-11.8414
▁difensiva	-11.8414
▁divergenze	-11.8414
▁escludere	-11.8414
▁feudatari	-11.8414
▁friedrich	-11.8414
▁gianfranco	-11.8414
▁giovinezza	-11.8414
▁graduatori	-11.8414
▁intellettuale	-11.8414
▁jugoslava	-11.8414
▁legislatura	-11.8414
▁léopold	-11.8414
▁macgowan	-11.8414
▁meccaniche	-11.8414
▁medioevale	-11.8414
▁melicerte	-11.8414
▁mondadori	-11.8414
▁monserrato	-11.8414
▁monumentali	-11.8414
▁piramide	-11.8414
▁pompidou	-11.8414
▁radiofonica	-11.8414
▁ricompensa	-11.8414
▁sconosciuti	-11.8414
▁sforzo	-11.8414
▁strumentale	-11.8414
▁supergigante	-11.8414
▁trasversale	-11.8414
▁versailles	-11.8414
epidemia	-11.8414
plesiadapi	-11.8414
▁casalinghe	-11.8414
▁fantasy	-11.8414
▁flyers	-11.8414
▁garcía	-11.8414
▁insignito	-11.8414
▁optimus	-11.8414
▁prevalenza	-11.8414
▁scimmia	-11.8414
▁sembrerebbe	-11.8414
▁soggiorna	-11.8414
astronave	-11.8414
▁anchieta	-11.8414
▁irromp	-11.8414
▁massimiliano	-11.8414
▁disposizioni	-11.8414
▁alamorte	-11.8414
▁ciononostante	-11.8414
▁collateral	-11.8414
▁globali	-11.8414
▁preferendo	-11.8414
▁architetti	-11.8414
▁minacce	-11.8414
▁pranzo	-11.8414
▁ruggero	-11.8414
▁vascello	-11.8414
▁innovazioni	-11.8414
▁consulente	-11.8414
▁discreta	-11.8414
▁dolph	-11.8414
▁melodia	-11.8414
▁rendimento	-11.8414
▁arthas	-11.8414
▁collettiva	-11.8414
▁intercetta	-11.8414
ampiezza	-11.8414
antagonist	-11.8414
▁munizioni	-11.8414
▁nbc	-11.8414
▁governò	-11.8414
▁ranieri	-11.8414
▁nemiche	-11.8415
▁strinse	-11.8415
▁viareggio	-11.8415
▁inchiostr	-11.8415
▁segmento	-11.8415
▁investito	-11.8415
▁racchius	-11.8415
▁comporre	-11.8415
▁carmine	-11.8415
▁incoronat	-11.8415
▁rinasce	-11.8415
▁branca	-11.8415
▁peccato	-11.8416
sponsorizzazione	-11.8417
▁horse	-11.8417
equatore	-11.8418
▁officia	-11.8419
anatomia	-11.842
▁garantisc	-11.843
corriere	-11.8431
▁sostengo	-11.8437
edificazione	-11.8441
institut	-11.845
▁contattat	-11.847
▁allineat	-11.8515
▁percezion	-11.8528
half	-11.8586
▁raccord	-11.859
austral	-11.8608
▁differisc	-11.8615
▁aderisc	-11.8638
mission	-11.8666
interruzion	-11.8695
coprono	-11.8698
▁assorb	-11.87
▁temporanea	-11.8703
apparat	-11.8737
▁preved	-11.8751
▁opzion	-11.8758
▁intervenne	-11.8776
inventario	-11.8815
▁generalizzat	-11.8819
académie	-11.8869
aristocrazia	-11.8869
contrapposizione	-11.8869
olympic	-11.8869
pirofregat	-11.8869
▁"530"	-11.8869
▁adolescenti	-11.8869
▁aleksandr	-11.8869
▁bordeaux	-11.8869
▁bruxelles	-11.8869
▁canadiens	-11.8869
▁capostipite	-11.8869
▁cattolicesimo	-11.8869
▁crepuscolo	-11.8869
▁faithless	-11.8869
▁fanciulla	-11.8869
▁fanciulle	-11.8869
▁flagellazione	-11.8869
▁gandolfo	-11.8869
▁giuridica	-11.8869
▁gravitazional	-11.8869
▁ieyasu	-11.8869
▁longobardo	-11.8869
▁matthew	-11.8869
▁meteorologi	-11.8869
▁napoletani	-11.8869
▁nebulosità	-11.8869
▁ottenute	-11.8869
▁peloponneso	-11.8869
▁phobos	-11.8869
▁pittsburgh	-11.8869
▁poetessa	-11.8869
▁presidenziale	-11.8869
▁productions	-11.8869
▁produttrice	-11.8869
▁rimprovera	-11.8869
▁sagrestia	-11.8869
▁sceriffo	-11.8869
▁somiglianza	-11.8869
▁sommergibile	-11.8869
▁southern	-11.8869
▁sovietici	-11.8869
▁streaming	-11.8869
▁tenochtitlán	-11.8869
▁ubriaca	-11.8869
▁velsinea	-11.8869
▁biennio	-11.8869
▁cavalleria	-11.8869
▁colpevoli	-11.8869
▁guelfo	-11.8869
▁nauplia	-11.8869
▁necropoli	-11.8869
▁svantaggi	-11.8869
incoronazione	-11.8869
▁adottò	-11.8869
▁compromesso	-11.8869
▁livrea	-11.8869
▁padiglion	-11.8869
▁profughi	-11.8869
▁razionale	-11.8869
▁sepoltura	-11.8869
▁ungheresi	-11.8869
▁concittadin	-11.8869
▁harvard	-11.8869
▁manufatt	-11.8869
▁misteriosa	-11.8869
▁paraguay	-11.8869
irrigazione	-11.8869
▁garrosh	-11.8869
▁modugno	-11.8869
▁reliquia	-11.8869
ermitage	-11.8869
▁nazisti	-11.8869
▁sequenze	-11.8869
appennino	-11.8869
▁conferito	-11.8869
▁risposte	-11.8869
elicottero	-11.8869
▁pitture	-11.8869
incredibile	-11.8869
▁coerente	-11.8869
▁commodor	-11.8869
▁scadenza	-11.8869
▁smalti	-11.8869
▁intervalli	-11.8869
▁redeker	-11.8869
▁abitual	-11.8869
▁cascate	-11.8869
▁project	-11.8869
▁science	-11.8869
▁challenge	-11.8869
▁creduto	-11.8869
▁nipoti	-11.8869
▁uscite	-11.8869
▁bosnia	-11.8869
▁esorta	-11.8869
▁racing	-11.8869
▁addossat	-11.8869
▁credono	-11.8869
▁identica	-11.8869
▁incolpa	-11.8869
▁spunti	-11.8869
▁filtra	-11.8869
▁panorami	-11.887
▁riferibil	-11.887
nanshe	-11.887
▁aggred	-11.887
▁agostinian	-11.887
preludio	-11.8871
▁theodor	-11.8871
▁prolific	-11.8871
impasto	-11.8872
accurata	-11.8873
▁endemic	-11.8875
▁accessibili	-11.8875
germain	-11.8876
▁riguard	-11.8891
impugna	-11.8908
sepolta	-11.8913
▁sperimentazion	-11.8962
tennero	-11.8988
▁rangers	-11.9011
▁accampa	-11.9167
▁riapert	-11.9176
omosessualità	-11.9219
sansepolcro	-11.9223
composizione	-11.9223
effetti	-11.9224
▁verific	-11.9263
▁desideri	-11.927
▁suggerisc	-11.9275
▁multipla	-11.9276
ornament	-11.9312
qixing	-11.9345
archeologo	-11.9345
qawwali	-11.9345
soddisfazione	-11.9345
▁2011-2012	-11.9345
▁anurādhapura	-11.9345
▁apparecchiature	-11.9345
▁ausiliari	-11.9345
▁chapelier	-11.9345
▁clippers	-11.9345
▁efficiente	-11.9345
▁energetica	-11.9345
▁eutidemo	-11.9345
▁garibaldo	-11.9345
▁inquinanti	-11.9345
▁irradia	-11.9345
▁istituzionali	-11.9345
▁jacqueline	-11.9345
▁kandinsky	-11.9345
▁melbourne	-11.9345
▁oklahoma	-11.9345
▁pellicole	-11.9345
▁polemica	-11.9345
▁pontificum	-11.9345
▁promontorio	-11.9345
▁radicalmente	-11.9345
▁radiofonico	-11.9345
▁sensibilmente	-11.9345
▁slovena	-11.9345
▁smembra	-11.9345
▁sospesa	-11.9345
▁benjamin	-11.9345
▁borjomi	-11.9345
▁economy	-11.9345
▁phillips	-11.9345
▁splendore	-11.9345
▁triennale	-11.9345
▁validità	-11.9345
pahlavan	-11.9345
▁cristalli	-11.9345
▁goblin	-11.9345
▁infantile	-11.9345
▁scompare	-11.9345
▁sottosuolo	-11.9345
▁stirpe	-11.9345
▁biglietto	-11.9345
▁romitorio	-11.9345
▁tridimensionale	-11.9345
▁colloquio	-11.9345
▁eannatum	-11.9345
▁poliedro	-11.9345
▁samurai	-11.9345
▁suggeriment	-11.9345
▁esplosioni	-11.9345
▁gennaro	-11.9345
▁pennellate	-11.9345
▁violenti	-11.9345
▁prototipi	-11.9345
▁richiese	-11.9345
▁scomunica	-11.9345
▁trascrizion	-11.9345
▁dravidi	-11.9345
▁fascismo	-11.9345
▁viceversa	-11.9345
▁floyd	-11.9345
straubing	-11.9345
▁melodie	-11.9345
▁mohand	-11.9345
▁tastiera	-11.9345
▁garanzia	-11.9345
▁amedeo	-11.9345
▁pionieri	-11.9345
▁picasso	-11.9345
▁wonder	-11.9345
▁colloredo	-11.9345
▁limburg	-11.9345
▁tricolore	-11.9345
▁cunard	-11.9345
▁apostolo	-11.9345
▁marziale	-11.9345
▁bmw	-11.9345
esaltazione	-11.9345
▁caserma	-11.9345
▁riunioni	-11.9345
▁finnian	-11.9345
investimento	-11.9345
abolizione	-11.9345
▁ferries	-11.9345
▁trittico	-11.9345
▁saudita	-11.9345
▁allestimenti	-11.9345
▁ulisse	-11.9345
▁apportat	-11.9345
▁acquisizioni	-11.9345
▁maurice	-11.9345
▁pugile	-11.9345
▁educativ	-11.9345
▁verbale	-11.9345
▁carbone	-11.9345
▁cremona	-11.9345
ombrone	-11.9345
▁accertat	-11.9345
insaputa	-11.9345
▁tenute	-11.9345
▁canottier	-11.9345
▁suggerit	-11.9345
usciranno	-11.9345
▁supereroi	-11.9346
hausen	-11.9346
eritrea	-11.9346
▁paralizza	-11.9348
▁massacra	-11.9348
▁vandali	-11.9348
▁interattiv	-11.935
electric	-11.9351
▁reverend	-11.9351
▁protettiv	-11.9355
▁sussist	-11.9357
▁terrier	-11.9363
▁terrorizza	-11.9366
▁obbed	-11.9366
arrogan	-11.9367
qualificò	-11.9373
▁locuzion	-11.9425
stituire	-11.9428
blind	-11.9454
abitacolo	-11.9515
cepisce	-11.9525
affidabilità	-11.9526
▁aderir	-11.9613
▁obblig	-11.9619
▁sociologi	-11.9644
▁penultim	-11.9647
allontanamento	-11.97
▁planet	-11.9719
assistente	-11.9723
hockey	-11.9723
▁ghiacci	-11.9768
arcivescov	-11.977
▁tirreni	-11.9778
siedono	-11.9835
▁bombarda	-11.9836
▁mcdonald	-11.9845
▁usufru	-11.9845
▁affiliata	-11.9845
▁arcivescovile	-11.9845
▁aristotele	-11.9845
▁catastrofi	-11.9845
▁celeberrim	-11.9845
▁celentano	-11.9845
▁coadiuvat	-11.9845
▁decretò	-11.9845
▁discussioni	-11.9845
▁distinguono	-11.9845
▁distrettuale	-11.9845
▁dodecaedro	-11.9845
▁escluso	-11.9845
▁interstellare	-11.9845
▁kalimdor	-11.9845
▁konietzko	-11.9845
▁lufthansa	-11.9845
▁malfurion	-11.9845
▁meihua	-11.9845
▁nobushige	-11.9845
▁occasionalmente	-11.9845
▁palcoscenico	-11.9845
▁pictures	-11.9845
▁plurale	-11.9845
▁pneumatic	-11.9845
▁precursore	-11.9845
▁produttive	-11.9845
▁propulsione	-11.9845
▁riassume	-11.9845
▁ridimensiona	-11.9845
▁riprendono	-11.9845
▁risveglio	-11.9845
▁saskatoon	-11.9845
▁scritture	-11.9845
▁sottospecie	-11.9845
▁ubriaco	-11.9845
▁ucraino	-11.9845
▁uffizi	-11.9845
▁vallombrosa	-11.9845
▁vetroresina	-11.9845
▁wittelsbach	-11.9845
▁ziggler	-11.9845
transformers	-11.9845
▁acconsent	-11.9845
▁bloom	-11.9845
▁conferenze	-11.9845
▁journal	-11.9845
▁morfologia	-11.9845
▁preesistenti	-11.9845
▁purgatorio	-11.9845
▁stipendi	-11.9845
▁stupore	-11.9845
▁vormav	-11.9845
▁wolfgang	-11.9845
▁duplice	-11.9845
▁galleggia	-11.9845
▁incompiut	-11.9845
▁zaccaria	-11.9845
broadway	-11.9845
▁riconoscono	-11.9845
▁definendo	-11.9845
▁fiorentini	-11.9845
▁jennifer	-11.9845
▁uccello	-11.9845
morfismo	-11.9845
▁diagnosta	-11.9845
▁dinamiche	-11.9845
▁rafael	-11.9845
▁sapienza	-11.9845
▁scrigno	-11.9845
▁elettrofori	-11.9845
▁costruttori	-11.9845
▁inseguito	-11.9845
▁memorizza	-11.9845
▁agricolo	-11.9845
▁corruzione	-11.9845
▁somalia	-11.9845
▁66°	-11.9845
▁forlì	-11.9845
▁tranviari	-11.9845
▁pendenza	-11.9845
ambrosia	-11.9845
▁shaolin	-11.9845
arborea	-11.9845
fondamentalmente	-11.9845
▁pugnale	-11.9845
▁sakic	-11.9845
abruzzo	-11.9845
▁montreal	-11.9845
▁vergini	-11.9845
▁1881	-11.9845
▁pollici	-11.9845
▁camillo	-11.9845
▁frecce	-11.9845
▁casalinga	-11.9845
▁distinta	-11.9845
▁gonfi	-11.9845
▁manzoni	-11.9845
ganondorf	-11.9846
▁conseguir	-11.9846
▁contestual	-11.9846
▁catastal	-11.9846
▁compensa	-11.9846
▁degenera	-11.9847
enigma	-11.9847
ø	-14.0322
